<unk>	0
<s>	0
</s>	0
PAD	0
EOS	0
SOS	0
▁	-2.57964
▁(	-2.82913
)	-2.84229
.	-2.95406
-	-3.74539
B	-3.91881
Y	-3.92296
org	-3.92669
France	-3.92693
:	-3.92699
▁Attr	-3.92762
ibution	-3.92773
&	-3.92774
tatoeba	-3.92775
▁2.0	-3.92775
CC	-3.94158
'	-4.09958
C	-4.10323
K	-4.29373
celtic	-4.59366
sacred	-4.59369
s	-4.77333
▁I	-4.93776
t	-5.34562
▁you	-5.38327
▁to	-5.42377
▁a	-5.45838
▁de	-5.47468
A	-5.53138
▁Je	-5.5486
?	-5.6263
iji	-5.68029
▁Tom	-5.68033
▁pas	-5.73223
▁the	-5.73794
▁?	-5.83493
▁que	-5.90297
,	-5.95435
à	-6.0186
▁ne	-6.1454
▁me	-6.15407
▁la	-6.20485
▁le	-6.22995
▁Il	-6.29983
▁is	-6.3165
re	-6.34549
ai	-6.36067
est	-6.44178
▁n	-6.45274
▁l	-6.4778
▁J	-6.49704
▁vous	-6.52524
n	-6.52695
▁est	-6.53133
▁un	-6.55655
▁that	-6.5627
M	-6.56564
e	-6.57187
m	-6.59388
▁of	-6.62788
a	-6.64682
▁in	-6.65768
▁You	-6.67574
▁d	-6.72292
d	-6.73233
▁He	-6.78494
▁was	-6.81702
il	-6.82806
▁it	-6.84115
▁ce	-6.85984
▁have	-6.87174
▁en	-6.88517
vous	-6.91028
▁do	-6.92372
▁une	-6.93197
▁for	-6.95879
tu	-6.96279
Spa	-6.98375
mster	-6.98777
H	-6.99794
▁don	-7.02852
▁this	-7.03077
▁be	-7.04996
▁suis	-7.05695
▁pour	-7.07117
▁je	-7.08827
ybrid	-7.08962
▁your	-7.11423
▁not	-7.11676
▁We	-7.14043
ce	-7.15204
2	-7.15447
▁want	-7.17631
▁can	-7.17855
▁les	-7.18778
▁Elle	-7.18845
y	-7.20667
o	-7.21274
▁The	-7.21525
▁faire	-7.22138
▁my	-7.23745
▁did	-7.24922
0	-7.25524
▁Nou	-7.25808
▁qu	-7.29398
▁know	-7.31687
63	-7.33563
▁like	-7.34591
▁on	-7.34958
▁She	-7.35439
▁tu	-7.36066
_	-7.36159
▁are	-7.36205
▁Tu	-7.36468
r	-7.36624
▁Vous	-7.37351
▁!	-7.38991
ed	-7.39822
▁It	-7.40312
▁with	-7.41017
14	-7.41223
33	-7.4392
26	-7.44648
8	-7.44787
17	-7.45278
47	-7.45464
▁dans	-7.45683
27	-7.45744
31	-7.46027
46	-7.4669
30	-7.47285
ll	-7.47486
67	-7.4757
58	-7.47578
▁nous	-7.47716
▁plus	-7.4829
66	-7.48354
20	-7.48561
48	-7.48731
16	-7.49202
96	-7.49255
32	-7.49282
36	-7.49367
7	-7.498
34	-7.50178
18	-7.50294
38	-7.50582
ve	-7.50677
37	-7.50695
06	-7.50944
24	-7.50952
93	-7.51045
19	-7.51401
72	-7.51545
04	-7.51565
75	-7.51695
83	-7.51972
68	-7.52058
39	-7.52235
64	-7.52273
35	-7.52448
57	-7.52448
73	-7.52475
65	-7.52522
74	-7.5262
▁m	-7.5269
76	-7.52707
ing	-7.52767
40	-7.52929
94	-7.52983
23	-7.53051
9	-7.53353
53	-7.53579
03	-7.54008
55	-7.54105
01	-7.54264
05	-7.54577
41	-7.54578
22	-7.54803
69	-7.54895
43	-7.55603
45	-7.55742
21	-7.55831
99	-7.55849
25	-7.55923
78	-7.55995
10	-7.56003
12	-7.56406
28	-7.56423
97	-7.56474
6	-7.56603
80	-7.5662
86	-7.56833
11	-7.57087
02	-7.57121
42	-7.57245
77	-7.57347
09	-7.57431
51	-7.57464
82	-7.57508
92	-7.57636
44	-7.57657
▁what	-7.57882
1	-7.58113
15	-7.58196
61	-7.5826
49	-7.58267
13	-7.58546
71	-7.58584
85	-7.58752
50	-7.58869
es	-7.58912
70	-7.5895
95	-7.59048
56	-7.59065
90	-7.59145
29	-7.59268
54	-7.59323
08	-7.59324
60	-7.59805
▁des	-7.59814
52	-7.59921
00	-7.60094
▁as	-7.60325
62	-7.60845
▁te	-7.61014
89	-7.61211
91	-7.61443
▁What	-7.61488
▁ça	-7.62057
87	-7.62099
é	-7.62363
z	-7.62766
3	-7.63149
81	-7.63283
▁du	-7.63333
▁all	-7.63774
▁fait	-7.63979
98	-7.64137
07	-7.64683
▁at	-7.64978
59	-7.6499
88	-7.65717
▁think	-7.65768
84	-7.65804
▁se	-7.66233
▁go	-7.6633
4	-7.66448
▁veux	-7.66583
79	-7.67194
▁he	-7.67257
▁au	-7.69255
▁his	-7.69766
▁avec	-7.71256
▁qui	-7.71957
▁him	-7.72048
▁Mary	-7.75191
▁Do	-7.75339
5	-7.76305
en	-7.76871
GB	-7.79738
f	-7.80549
▁They	-7.81467
er	-7.8229
▁and	-7.83344
▁about	-7.84094
▁time	-7.84365
3)	-7.85162
▁Le	-7.86874
▁tout	-7.87068
▁very	-7.8994
ni	-7.90065
▁sont	-7.90502
▁here	-7.90512
▁et	-7.92066
▁son	-7.92612
▁were	-7.95085
▁This	-7.95469
▁j	-7.96292
▁That	-7.96526
▁mon	-7.96647
▁si	-7.97094
▁we	-7.97522
▁had	-8.00148
▁très	-8.0049
▁sur	-8.00628
▁How	-8.0122
▁Ce	-8.02336
▁get	-8.04278
▁out	-8.04395
un	-8.04705
el	-8.04903
▁La	-8.05035
▁her	-8.05095
as	-8.05479
▁up	-8.06018
ez	-8.0626
▁one	-8.0667
▁temps	-8.06731
▁dit	-8.07164
▁Don	-8.07165
▁has	-8.07367
▁c	-8.08947
Scorpion	-8.09187
venin	-8.09227
▁être	-8.09398
▁Ne	-8.09421
▁vot	-8.09885
▁so	-8.10258
▁lui	-8.10476
▁going	-8.10982
▁moi	-8.12145
▁pense	-8.12601
▁will	-8.12898
▁Are	-8.13092
▁été	-8.13746
T	-8.14317
▁peux	-8.14748
14)	-8.15481
p	-8.15676
▁chose	-8.16399
▁just	-8.16615
▁should	-8.16835
mfe	-8.16948
ra	-8.17442
N	-8.176
▁êtes	-8.18156
sy	-8.18242
▁était	-8.18455
▁sais	-8.18588
c	-8.18684
x	-8.2021
▁need	-8.20335
cette	-8.20548
▁good	-8.2153
▁y	-8.21552
▁par	-8.21562
sko	-8.21619
us	-8.2172
▁Les	-8.21912
b	-8.2249
k	-8.22936
je	-8.2306
▁ici	-8.24168
▁jamais	-8.25223
▁an	-8.25558
▁ma	-8.25576
▁no	-8.25766
S	-8.2662
on	-8.28064
mana	-8.28261
▁would	-8.29749
▁see	-8.31017
▁cela	-8.3133
l	-8.31571
▁vraiment	-8.3186
ly	-8.33538
▁My	-8.33653
▁could	-8.33813
▁us	-8.33824
▁really	-8.33913
u	-8.3395
▁help	-8.33988
▁tell	-8.34086
▁Pourquoi	-8.342
▁there	-8.34303
▁from	-8.3454
is	-8.3478
G	-8.35092
▁bien	-8.35268
▁Why	-8.35418
g	-8.35607
▁train	-8.35667
nt	-8.36491
be	-8.36577
ment	-8.3691
▁by	-8.37583
▁dire	-8.37732
moi	-8.38566
Ye	-8.39602
U	-8.39939
Mic	-8.40189
smith	-8.41374
▁does	-8.42126
▁toi	-8.42338
▁quelque	-8.42516
D	-8.42944
mex	-8.43731
ur	-8.43766
darin	-8.43849
▁sa	-8.44014
▁been	-8.44451
▁L	-8.45663
▁besoin	-8.46114
▁come	-8.4657
▁ton	-8.47482
le	-8.48218
▁more	-8.486
▁never	-8.49642
elle	-8.50201
F	-8.52051
▁There	-8.52373
O	-8.52554
tras	-8.52839
▁now	-8.52884
al	-8.53692
RA	-8.53841
▁beaucoup	-8.53998
▁got	-8.55275
aime	-8.56242
▁es	-8.56663
V	-8.57325
▁sommes	-8.5744
▁tous	-8.57458
▁if	-8.57467
Phoenix	-8.57481
ons	-8.5839
▁car	-8.58987
▁too	-8.59024
▁avons	-8.59358
▁Commen	-8.59825
▁something	-8.59893
▁Est	-8.60396
▁parler	-8.60656
▁avez	-8.60834
▁than	-8.6087
▁much	-8.609
▁Can	-8.61671
était	-8.61745
▁but	-8.62012
▁maison	-8.64653
vo	-8.6518
Sour	-8.65564
▁peut	-8.66155
▁ont	-8.66446
▁take	-8.6664
▁work	-8.66753
▁right	-8.67028
▁O	-8.67068
▁aller	-8.67275
▁make	-8.67307
▁Let	-8.67498
être	-8.67972
▁va	-8.67991
▁#80	-8.68238
▁peu	-8.6891
te	-8.6897
▁là	-8.69351
q	-8.70336
▁how	-8.70362
▁toujours	-8.70655
▁trop	-8.71006
▁rien	-8.71084
FS	-8.71176
▁On	-8.71494
!	-8.71667
▁voir	-8.72132
▁#204	-8.72363
▁home	-8.72555
▁deux	-8.73442
▁Did	-8.73562
▁some	-8.73803
▁money	-8.74568
▁ta	-8.7494
▁thought	-8.75149
▁when	-8.75751
▁encore	-8.76025
in	-8.76088
▁they	-8.76368
▁back	-8.77285
▁quoi	-8.77359
▁last	-8.77383
▁any	-8.77635
▁who	-8.7765
i	-8.78087
▁comme	-8.78329
▁she	-8.78557
dii	-8.78737
▁talk	-8.792
▁long	-8.79208
▁am	-8.79314
▁Qu	-8.79326
▁monde	-8.79329
▁sure	-8.79487
étais	-8.79675
▁bon	-8.7982
▁say	-8.80285
tes	-8.80547
air	-8.80787
▁voiture	-8.80847
▁anything	-8.80933
▁lot	-8.8142
▁#201	-8.81578
ent	-8.82365
v	-8.82421
▁#382	-8.82536
▁day	-8.82818
▁No	-8.83242
▁told	-8.83273
▁mais	-8.83337
▁#449	-8.84228
▁Boston	-8.84543
argent	-8.84838
▁soit	-8.8521
▁faut	-8.86234
▁il	-8.87349
able	-8.87714
▁avoir	-8.88141
▁Please	-8.88713
▁Si	-8.88791
une	-8.88963
▁must	-8.89301
▁travail	-8.89318
▁Tout	-8.89382
▁vais	-8.89412
▁way	-8.89795
ait	-8.90019
▁Where	-8.90059
ch	-8.90695
▁dois	-8.90753
hort	-8.90761
▁made	-8.91035
▁love	-8.91093
aimerais	-8.91256
▁#373	-8.9149
▁As	-8.91505
lga	-8.91686
▁vu	-8.91803
▁#45	-8.91873
▁fois	-8.91908
▁Mon	-8.91989
US	-8.92068
▁Who	-8.9218
vox	-8.9232
▁#401	-8.92555
dei	-8.92642
hui	-8.92693
▁#224	-8.92761
ro	-8.92997
1596	-8.93061
rene	-8.93557
▁#78	-8.93737
▁said	-8.94119
piti	-8.94738
Alan	-8.95271
▁feel	-8.95306
se	-8.9562
ù	-8.95912
▁#225	-8.96867
tole	-8.96937
tna	-8.96987
ant	-8.97173
▁aussi	-8.97498
▁avait	-8.975
▁Que	-8.97523
▁house	-8.97982
▁eat	-8.98077
▁mes	-8.98517
Renais	-8.98533
▁people	-8.98626
▁#228	-8.98673
Feu	-8.9872
▁went	-8.99339
Ro	-8.9956
▁#364	-8.99687
ette	-8.99893
▁still	-9.00117
che	-9.00134
▁look	-9.00182
▁Is	-9.00262
▁#118	-9.01216
▁eu	-9.01335
▁happy	-9.01715
▁today	-9.0181
▁doing	-9.0244
▁ses	-9.02863
ci	-9.02917
▁always	-9.03056
▁ceci	-9.03071
▁French	-9.03152
▁maintenant	-9.03152
▁better	-9.03249
▁off	-9.03634
▁où	-9.03713
▁won	-9.03731
▁believe	-9.04196
▁juste	-9.04474
▁français	-9.0461
▁only	-9.04744
pp	-9.05322
no	-9.05348
El	-9.05626
▁#95	-9.05809
ation	-9.0581
▁room	-9.06105
▁night	-9.06214
▁#195	-9.06289
▁job	-9.06388
▁book	-9.0669
▁S	-9.068
under	-9.07029
eux	-9.07374
▁give	-9.07751
w	-9.0783
▁again	-9.07881
it	-9.07923
▁Have	-9.08005
ux	-9.08218
ils	-9.08289
ge	-9.08396
▁#221	-9.08755
▁#102	-9.09019
▁before	-9.09218
▁Ma	-9.09224
▁#202	-9.09272
▁chez	-9.09355
▁Qui	-9.09671
▁même	-9.10039
que	-9.101
▁aujourd	-9.10315
▁parents	-9.10768
▁part	-9.10983
▁many	-9.11151
▁moment	-9.1129
or	-9.11617
▁over	-9.12027
▁livre	-9.12344
▁porte	-9.12535
▁school	-9.12659
avais	-9.12879
▁question	-9.13201
▁#74	-9.13612
▁little	-9.13936
▁them	-9.14102
▁#227	-9.14221
▁P	-9.14653
dad	-9.14857
▁#109	-9.14953
▁déjà	-9.15238
nous	-9.15268
▁new	-9.15381
▁our	-9.15562
▁down	-9.15675
▁old	-9.16011
gill	-9.16147
toad	-9.16238
▁pensais	-9.16444
Dream	-9.16775
▁personne	-9.1701
▁leave	-9.1726
▁#238	-9.17423
▁man	-9.17786
▁#687	-9.1839
▁père	-9.18948
▁Avez	-9.1901
▁prendre	-9.19052
▁mal	-9.19779
▁wanted	-9.19811
▁hier	-9.19855
bla	-9.19932
▁bonne	-9.20114
▁assez	-9.20161
▁where	-9.20412
▁#168	-9.20438
Scott	-9.20491
▁Personne	-9.21066
▁dé	-9.21117
▁mieux	-9.21182
▁#183	-9.21204
▁hard	-9.2126
▁well	-9.21324
iko	-9.21393
▁#62	-9.21432
▁N	-9.21548
▁#236	-9.21553
▁#146	-9.21652
▁fais	-9.21953
école	-9.22461
▁dis	-9.22664
▁father	-9.2293
▁#565	-9.23105
▁alone	-9.23167
▁understand	-9.23283
▁tomorrow	-9.2352
▁seul	-9.2378
▁happened	-9.23793
li	-9.2401
▁left	-9.24117
ifre	-9.24331
Toy	-9.24472
nop	-9.24779
▁#81	-9.24786
▁problème	-9.24822
▁find	-9.2558
▁#564	-9.25764
▁#112	-9.25793
▁#115	-9.26156
ne	-9.26616
▁demain	-9.26765
avez	-9.26853
▁toutes	-9.27244
▁enough	-9.27255
arrive	-9.27439
ir	-9.27655
▁#226	-9.27816
▁trois	-9.27995
▁#289	-9.28099
▁asked	-9.28177
▁vie	-9.28198
domin	-9.28371
▁yesterday	-9.2849
▁put	-9.28513
mama	-9.28564
▁manger	-9.28581
▁bus	-9.28596
▁pu	-9.28607
h	-9.28753
▁quand	-9.28763
▁#111	-9.28771
rchi	-9.28811
▁#218	-9.28881
▁sans	-9.28992
▁dû	-9.29114
▁#190	-9.29307
ombien	-9.29331
▁or	-9.29356
bald	-9.29368
▁devrais	-9.29491
▁place	-9.29668
▁Quel	-9.29997
ter	-9.30095
▁three	-9.3012
▁plaît	-9.30499
la	-9.31141
▁#114	-9.31404
▁#192	-9.31655
st	-9.31746
▁savoir	-9.32213
▁saw	-9.32318
▁#359	-9.32328
ée	-9.32412
autre	-9.32461
▁done	-9.32517
▁gens	-9.3255
▁into	-9.32669
▁hope	-9.32677
▁two	-9.32809
around	-9.33034
▁Un	-9.33048
▁please	-9.33079
▁#197	-9.33114
▁avant	-9.33158
▁#167	-9.33199
▁#203	-9.33253
▁grand	-9.33322
di	-9.33379
▁#37	-9.33664
▁fut	-9.33678
▁speak	-9.33736
▁When	-9.33853
▁friend	-9.34059
ais	-9.34705
ont	-9.34837
ma	-9.35424
▁plan	-9.35581
ou	-9.35658
▁problem	-9.3566
▁#231	-9.35736
▁#79	-9.35779
▁#10	-9.35847
▁soir	-9.36122
▁dog	-9.36615
ic	-9.36873
at	-9.36875
▁#199	-9.3704
▁enfants	-9.37046
▁heures	-9.37446
▁partir	-9.37469
ri	-9.37513
▁#366	-9.37593
▁toute	-9.37646
▁#110	-9.37879
▁why	-9.38003
▁nuit	-9.38005
▁everything	-9.38414
luk	-9.38471
▁friends	-9.38473
▁#153	-9.38497
▁every	-9.389
▁chien	-9.39093
▁stay	-9.39125
▁Marie	-9.39347
ar	-9.39368
▁#209	-9.39581
▁#165	-9.39643
▁point	-9.39815
▁buy	-9.39912
▁ever	-9.40148
▁#145	-9.40358
▁aux	-9.40359
age	-9.40567
▁door	-9.40624
Rock	-9.40783
eau	-9.40906
▁next	-9.40919
▁#147	-9.40939
▁week	-9.41047
▁après	-9.413
▁late	-9.41748
▁simplement	-9.41913
an	-9.42138
▁call	-9.42265
▁jour	-9.42358
vi	-9.42413
▁#185	-9.42526
▁ask	-9.42546
me	-9.42612
▁#154	-9.42762
▁#196	-9.42824
▁suppose	-9.43049
et	-9.43107
êtes	-9.43318
▁Cela	-9.43809
▁#239	-9.43991
iez	-9.44234
aurais	-9.44252
▁Would	-9.44498
▁pris	-9.44545
▁busy	-9.44597
▁name	-9.4466
▁sens	-9.44692
▁wrong	-9.45377
▁other	-9.45567
▁T	-9.45635
▁dernière	-9.45672
▁away	-9.4587
▁#219	-9.46093
▁sûr	-9.46505
▁#155	-9.46988
▁live	-9.47013
▁g	-9.47271
▁#237	-9.47616
▁passé	-9.4766
▁comment	-9.48094
▁#580	-9.48202
▁voulais	-9.48364
▁read	-9.48401
▁ou	-9.48439
▁#152	-9.48535
▁chance	-9.48657
▁pouvez	-9.48668
▁petit	-9.48789
▁ans	-9.48814
▁ces	-9.48941
▁idea	-9.49088
▁remember	-9.49126
▁Puis	-9.4913
▁#189	-9.49459
▁mère	-9.49461
▁let	-9.49734
▁ré	-9.50101
▁choses	-9.50335
▁hear	-9.50354
▁pourquoi	-9.50355
▁kind	-9.50509
▁thing	-9.50757
▁veut	-9.51135
▁drink	-9.51234
▁first	-9.51288
▁#230	-9.51804
▁venir	-9.52072
▁nothing	-9.52073
▁quelques	-9.52129
▁#363	-9.5232
▁rester	-9.52426
▁#193	-9.52734
lo	-9.53161
end	-9.53219
▁sorry	-9.53657
aider	-9.54074
avoir	-9.54214
▁#200	-9.54299
▁teacher	-9.5432
33)	-9.54544
▁gave	-9.54624
▁Es	-9.54803
vos	-9.54805
ti	-9.54831
▁#82	-9.55047
▁heureux	-9.55115
▁elle	-9.55238
▁En	-9.55367
▁Quelle	-9.55581
Petr	-9.55758
▁being	-9.55777
▁questions	-9.56072
▁nouveau	-9.56221
▁#163	-9.56317
▁#158	-9.56359
▁quelqu	-9.56554
▁already	-9.56577
▁yet	-9.56618
▁#206	-9.56736
paul	-9.56741
▁difficile	-9.56742
▁life	-9.56754
▁years	-9.56857
▁knew	-9.56907
▁things	-9.56983
▁mind	-9.57078
▁came	-9.5721
isn	-9.57235
▁mother	-9.57238
▁anyone	-9.5726
▁#210	-9.57293
▁took	-9.57326
▁#108	-9.57344
wift	-9.5757
▁try	-9.57869
▁jours	-9.57889
tion	-9.57965
▁semble	-9.58073
▁raison	-9.58076
▁#161	-9.58128
▁nom	-9.58131
ad	-9.58152
▁after	-9.58237
espère	-9.5825
rico	-9.58458
▁idée	-9.58513
▁#381	-9.58909
▁used	-9.59084
▁b	-9.59142
▁sait	-9.59251
th	-9.59386
▁#103	-9.59528
▁His	-9.59785
▁keep	-9.59941
▁tired	-9.60115
▁looking	-9.60424
▁croire	-9.60781
▁care	-9.60865
▁answer	-9.6089
▁morning	-9.60951
▁peur	-9.6112
▁without	-9.61145
▁#97	-9.61296
▁#75	-9.61405
pat	-9.61514
▁Your	-9.61531
▁may	-9.62066
▁#13	-9.62158
pe	-9.62165
▁#450	-9.62172
elles	-9.62409
té	-9.62508
▁All	-9.62766
▁demandé	-9.62876
ut	-9.63062
▁voulez	-9.63212
▁#223	-9.63388
▁found	-9.63591
▁#84	-9.63633
oco	-9.63745
▁best	-9.63794
▁non	-9.63847
▁trouver	-9.63909
moo	-9.64104
▁rendre	-9.64193
▁#174	-9.6422
▁parle	-9.64516
ig	-9.64529
▁#117	-9.64577
▁heard	-9.64625
Lu	-9.64844
▁semaine	-9.64854
▁bad	-9.64978
▁play	-9.65136
▁lost	-9.65347
▁#222	-9.65552
ie	-9.6561
▁#538	-9.65737
▁#177	-9.65763
▁seen	-9.65866
▁children	-9.65886
▁fille	-9.66011
▁wish	-9.66068
▁often	-9.66072
▁#566	-9.66156
▁their	-9.66183
▁important	-9.66367
▁matin	-9.66428
▁#585	-9.6643
▁#344	-9.66976
▁De	-9.66995
▁#562	-9.67046
▁#568	-9.67093
▁entendu	-9.67177
▁seule	-9.67247
▁same	-9.67362
Ge	-9.67642
▁tes	-9.67655
▁change	-9.67663
▁chambre	-9.67894
èrent	-9.67965
▁demande	-9.68016
▁minutes	-9.6824
▁these	-9.6825
▁arrivé	-9.68254
▁tôt	-9.68255
▁police	-9.68275
▁accident	-9.68478
▁big	-9.68483
▁Quan	-9.68908
▁table	-9.69047
▁#104	-9.69247
▁ready	-9.69471
▁#170	-9.69512
▁show	-9.69518
▁water	-9.69754
▁#198	-9.69878
▁#119	-9.70017
▁prie	-9.70257
▁stop	-9.70508
▁use	-9.70601
▁bed	-9.70627
▁#149	-9.70639
Romi	-9.70733
▁May	-9.70835
▁souvent	-9.70887
▁Could	-9.71078
▁haven	-9.71297
sa	-9.714
▁afraid	-9.71459
nar	-9.71522
▁#125	-9.72367
▁met	-9.72723
▁#65	-9.72906
▁#752	-9.7319
am	-9.73444
cles	-9.73531
▁soon	-9.73672
▁#94	-9.73778
lantis	-9.73782
▁femme	-9.73909
▁possible	-9.73989
J	-9.74039
▁depuis	-9.74186
Ec	-9.74398
ici	-9.74443
de	-9.74809
accord	-9.74958
▁pendant	-9.74959
▁trouvé	-9.74965
feli	-9.75155
▁English	-9.75156
▁else	-9.75162
▁mort	-9.75232
▁#191	-9.75424
▁#141	-9.75553
▁ami	-9.75651
▁savais	-9.75673
co	-9.7569
▁#162	-9.75729
▁#89	-9.75899
▁amis	-9.76162
▁#367	-9.76298
▁happen	-9.76394
▁#339	-9.76488
▁cet	-9.76532
▁#205	-9.76553
▁yourself	-9.76755
▁V	-9.76756
▁jusqu	-9.77162
▁perdu	-9.77256
▁party	-9.77319
▁retard	-9.77563
▁homme	-9.77605
▁#172	-9.77791
▁crois	-9.77799
▁con	-9.7797
ement	-9.7798
▁#579	-9.78132
▁#93	-9.78174
▁pièce	-9.78174
▁fête	-9.78201
▁#220	-9.78352
▁great	-9.78379
▁acheté	-9.78379
▁cha	-9.7847
sse	-9.78564
▁#194	-9.78584
▁frère	-9.78584
▁secret	-9.78789
ion	-9.78916
▁#229	-9.78969
▁brother	-9.78995
▁cold	-9.79004
▁lit	-9.79197
▁hurt	-9.79201
au	-9.7921
▁tard	-9.79234
ique	-9.79397
▁lorsqu	-9.79535
ver	-9.79656
▁longtemps	-9.79824
app	-9.79959
▁even	-9.79985
▁#106	-9.80018
▁quelle	-9.80204
if	-9.80388
▁Son	-9.80511
▁sera	-9.8054
▁aider	-9.80765
▁#207	-9.81021
▁#73	-9.81047
▁wait	-9.81385
▁#179	-9.81597
▁myself	-9.81709
▁pay	-9.82017
▁few	-9.82133
▁talking	-9.82283
▁#245	-9.82425
▁trouve	-9.82456
▁hate	-9.82522
▁#476	-9.82629
cause	-9.8267
▁#136	-9.82806
▁lettre	-9.82994
▁#683	-9.83044
▁nice	-9.8334
fran	-9.83411
▁#105	-9.83617
▁bought	-9.83635
adore	-9.83879
▁autre	-9.83931
▁dur	-9.83968
▁grande	-9.83982
▁fort	-9.84121
getting	-9.84231
▁#243	-9.84254
lb	-9.84284
▁letter	-9.84297
▁open	-9.84439
▁#122	-9.84514
▁matter	-9.84717
▁#335	-9.84718
bear	-9.84878
▁#178	-9.84882
▁glad	-9.84937
▁#88	-9.8494
ions	-9.85033
mouche	-9.85593
▁might	-9.85614
▁while	-9.85813
mes	-9.85815
▁passe	-9.85844
▁#166	-9.8587
ignore	-9.85908
▁lire	-9.85952
▁#90	-9.86148
▁#559	-9.86463
▁#327	-9.86529
▁Be	-9.8661
même	-9.86926
ck	-9.8694
▁sleep	-9.8724
▁#176	-9.8732
▁#343	-9.87369
▁main	-9.87377
▁#413	-9.87464
▁pouvons	-9.87593
▁#537	-9.87605
▁#466	-9.87666
▁jouer	-9.88011
▁write	-9.88043
▁moins	-9.8805
▁ville	-9.88305
▁vrai	-9.88457
▁married	-9.88495
▁food	-9.88495
▁pourrait	-9.88547
▁fun	-9.88548
▁leur	-9.88574
ard	-9.88756
▁#347	-9.88785
ow	-9.88844
▁#536	-9.88936
▁p	-9.89146
▁#83	-9.89177
▁#91	-9.89177
▁sister	-9.89191
▁#216	-9.89314
▁#126	-9.89347
▁travailler	-9.89384
▁#186	-9.8942
ide	-9.89491
▁year	-9.89491
ité	-9.89592
ré	-9.8961
▁#113	-9.89634
▁#689	-9.89634
▁true	-9.89637
▁#127	-9.89812
▁#173	-9.9004
▁sujet	-9.90093
▁early	-9.90095
▁walk	-9.90208
▁#360	-9.90214
ac	-9.90238
▁partie	-9.90497
▁another	-9.90554
aient	-9.90703
▁own	-9.90822
▁heure	-9.90847
▁devons	-9.91075
ha	-9.91214
fisher	-9.91251
cu	-9.91443
▁étaient	-9.9162
▁sortir	-9.91703
▁Une	-9.91821
▁#159	-9.92186
ther	-9.92325
avons	-9.92366
▁beautiful	-9.92421
▁rain	-9.92497
▁coup	-9.92523
heure	-9.92631
▁#686	-9.92644
stan	-9.92685
▁téléphone	-9.92719
▁café	-9.92894
▁#148	-9.9313
▁h	-9.9319
▁allé	-9.93291
▁#156	-9.93368
apprécie	-9.93422
▁sois	-9.93534
▁mis	-9.93547
▁tried	-9.93609
▁nouvelle	-9.93718
▁difficult	-9.9384
▁venu	-9.94103
▁pensé	-9.94175
▁Sa	-9.94189
▁looks	-9.94329
▁passer	-9.94348
ta	-9.94427
▁such	-9.94816
▁person	-9.95184
▁co	-9.95254
▁#342	-9.95289
▁vérité	-9.95289
▁#421	-9.95401
▁#582	-9.95428
▁doit	-9.95528
▁doctor	-9.95532
▁young	-9.95642
W	-9.957
▁meeting	-9.95826
▁photo	-9.95904
▁truth	-9.96019
▁mine	-9.96166
ier	-9.96221
toi	-9.96266
▁far	-9.96278
▁watch	-9.96393
▁wants	-9.96475
▁anymore	-9.96508
▁aime	-9.96539
arn	-9.97206
aide	-9.97399
fy	-9.97491
▁#372	-9.97573
▁journée	-9.97746
▁aren	-9.9779
▁petite	-9.97871
▁#557	-9.97936
▁connais	-9.97967
mi	-9.98232
▁presque	-9.98242
▁#595	-9.98491
▁devriez	-9.98491
▁#208	-9.98742
▁famille	-9.98742
ven	-9.98765
▁D	-9.98845
▁fini	-9.98861
xy	-9.9894
▁film	-9.99278
▁around	-9.99313
▁#215	-9.99387
ejo	-9.99555
▁#85	-9.99751
▁davantage	-9.99761
ive	-9.99878
▁#777	-9.99951
▁#423	-10.0015
▁coffee	-10.0026
▁#217	-10.0043
▁station	-10.0052
▁jeune	-10.0065
▁parti	-10.0068
▁hand	-10.0071
▁soyez	-10.0077
oul	-10.0095
▁faites	-10.0106
▁#693	-10.0107
ho	-10.0114
ite	-10.0117
▁days	-10.0121
ag	-10.0142
▁coming	-10.0146
▁attention	-10.0148
▁dinner	-10.0154
ue	-10.0172
▁meet	-10.019
▁donné	-10.0193
Po	-10.0202
▁Pouv	-10.0204
▁#124	-10.0226
▁#567	-10.0232
ka	-10.0233
aller	-10.0233
▁knows	-10.0246
▁Tell	-10.0246
▁tennis	-10.0284
▁turn	-10.0311
Ama	-10.0312
Goo	-10.0337
▁enjoy	-10.0338
▁travaille	-10.0355
lé	-10.036
▁bureau	-10.0363
▁almo	-10.041
▁#247	-10.0411
▁plu	-10.0412
▁#452	-10.0423
▁#663	-10.0431
dev	-10.0439
▁#116	-10.0442
▁ten	-10.0448
▁#575	-10.0457
ser	-10.0473
▁careful	-10.0493
mer	-10.0499
▁#246	-10.0527
▁#646	-10.053
▁#351	-10.0534
ine	-10.0557
▁#169	-10.0565
▁#87	-10.0576
▁close	-10.0583
art	-10.0596
▁spend	-10.0604
▁bit	-10.061
▁#100	-10.0615
papa	-10.063
rent	-10.0637
▁meilleur	-10.0664
▁once	-10.0671
▁déteste	-10.0676
▁together	-10.0684
▁Everyone	-10.0684
▁family	-10.0739
▁#591	-10.0766
▁#334	-10.0767
ers	-10.0773
▁#157	-10.0785
▁#685	-10.0793
▁tellement	-10.0798
▁seem	-10.0814
▁#123	-10.0821
▁devez	-10.0822
▁someone	-10.0822
▁#340	-10.0823
▁fatigué	-10.0829
min	-10.0838
ff	-10.0839
▁#408	-10.0849
▁restaurant	-10.0849
▁voulait	-10.0849
▁felt	-10.0849
▁situation	-10.0849
▁désolé	-10.0853
▁br	-10.0854
ring	-10.0856
▁waiting	-10.0856
▁reste	-10.0859
ner	-10.0873
▁phone	-10.0876
▁mot	-10.0884
▁com	-10.0902
▁#22184	-10.0945
▁books	-10.0945
▁joue	-10.0953
▁cat	-10.0963
és	-10.0972
▁drive	-10.0982
bi	-10.0987
▁tonight	-10.0989
R	-10.099
rai	-10.0994
▁combien	-10.1023
spen	-10.1047
▁#534	-10.1057
▁face	-10.1067
▁#336	-10.1072
▁étiez	-10.1072
▁start	-10.1077
▁#487	-10.1092
▁donner	-10.1098
▁occupé	-10.1111
539	-10.112
▁#120	-10.1128
▁livres	-10.1129
▁word	-10.1131
j	-10.1157
▁seems	-10.116
rik	-10.1172
▁pro	-10.1174
▁aucune	-10.1182
▁girl	-10.1187
▁#583	-10.121
▁world	-10.1215
▁wonder	-10.1215
▁mangé	-10.1225
▁réponse	-10.1244
▁trying	-10.1253
▁each	-10.1273
bo	-10.1274
▁light	-10.1281
▁study	-10.1296
▁#253	-10.1302
▁#535	-10.1319
▁rest	-10.1324
▁both	-10.1325
▁#472	-10.133
▁pretty	-10.133
▁demander	-10.1334
▁prêt	-10.1359
▁child	-10.1359
▁#86	-10.1359
▁#98	-10.1361
▁working	-10.1383
▁#694	-10.1383
▁Veuillez	-10.1389
▁easy	-10.1389
Barbi	-10.1389
▁#549	-10.1399
tre	-10.14
▁learn	-10.1401
▁quel	-10.1402
▁forget	-10.1405
less	-10.1407
▁propos	-10.1416
▁#328	-10.1418
▁vue	-10.1423
dou	-10.1426
▁died	-10.1428
▁minute	-10.1451
▁Get	-10.1453
▁longer	-10.1463
▁#213	-10.1467
▁froid	-10.1477
les	-10.1499
▁enfant	-10.152
▁cause	-10.1521
▁déjeuner	-10.1531
kebu	-10.1536
▁belle	-10.1567
▁sick	-10.157
▁fire	-10.1576
ate	-10.159
▁mean	-10.1595
▁pouvoir	-10.1595
▁tête	-10.1614
▁mauvais	-10.1623
▁Take	-10.1625
▁dix	-10.163
▁started	-10.1631
aux	-10.1649
▁dernier	-10.1655
▁#419	-10.1665
ire	-10.1675
▁#362	-10.1685
▁wife	-10.1685
▁Give	-10.1685
▁#477	-10.17
▁#22836	-10.1703
▁quit	-10.1705
▁arrive	-10.1712
▁nager	-10.172
▁run	-10.1721
▁#540	-10.1727
▁manière	-10.1746
▁po	-10.176
né	-10.1768
▁aide	-10.1769
▁six	-10.177
▁#506	-10.177
▁écrit	-10.179
▁#459	-10.1795
▁aucun	-10.18
▁#709	-10.1806
▁réunion	-10.1806
▁window	-10.1806
▁heureuse	-10.1813
▁boy	-10.1813
ry	-10.1837
▁malade	-10.1837
▁#548	-10.1837
▁#483	-10.1842
▁#99	-10.1853
▁sous	-10.1863
▁viens	-10.1867
▁gone	-10.1886
jc	-10.1913
▁certain	-10.1923
▁#171	-10.1928
▁médecin	-10.1928
ba	-10.1935
271	-10.1936
▁#440	-10.1945
▁#234	-10.1954
▁#656	-10.1954
▁Does	-10.1957
▁#121	-10.1959
▁Voul	-10.196
▁finished	-10.1964
▁dollars	-10.1968
▁surprised	-10.1974
▁devrait	-10.199
ca	-10.2001
▁#647	-10.2011
▁swim	-10.2021
▁Merci	-10.2021
▁vivre	-10.2021
▁#331	-10.2039
guy	-10.2041
▁facile	-10.205
▁#518	-10.2052
midi	-10.2054
▁comprendre	-10.2058
▁#182	-10.207
▁colère	-10.2084
▁vite	-10.2097
▁tra	-10.211
▁prison	-10.2129
▁#648	-10.2146
▁#530	-10.2167
▁#2543	-10.2178
▁voudrais	-10.2178
▁office	-10.2178
▁Will	-10.2181
▁#469	-10.2185
▁#529	-10.2191
▁compte	-10.2192
▁feu	-10.2195
▁serait	-10.22
▁#346	-10.221
▁sûre	-10.2221
▁looked	-10.223
▁fils	-10.2232
▁danger	-10.224
▁those	-10.2243
▁vieux	-10.2245
▁garçon	-10.2252
Bla	-10.2275
▁seulement	-10.2279
importe	-10.2303
▁#485	-10.2305
ous	-10.2306
▁serai	-10.2307
▁pourrais	-10.2313
▁most	-10.2314
ante	-10.2316
▁attend	-10.2319
▁personnes	-10.2326
▁ferais	-10.2328
▁comprends	-10.2329
▁#358	-10.2337
▁nourriture	-10.2337
▁envie	-10.2338
▁devrions	-10.2338
E	-10.2363
▁#542	-10.2369
▁ensemble	-10.2369
▁vit	-10.2371
▁laissé	-10.2378
▁#442	-10.2402
▁lunch	-10.2402
▁yeux	-10.2412
▁vas	-10.2415
▁chat	-10.2418
▁Stop	-10.2434
▁#285	-10.2444
▁#388	-10.2446
là	-10.2454
▁#545	-10.2468
par	-10.2468
▁#779	-10.2482
man	-10.2484
um	-10.2492
▁#592	-10.2494
▁mistake	-10.2498
▁#491	-10.2499
em	-10.2521
▁music	-10.253
▁#516	-10.2532
▁#458	-10.2534
▁likes	-10.2537
▁park	-10.2539
▁#409	-10.2565
164	-10.2565
▁Not	-10.2567
▁#755	-10.2582
itty	-10.2599
im	-10.2608
▁movie	-10.2612
rom	-10.2625
▁Just	-10.2633
ever	-10.2634
▁su	-10.2643
tôt	-10.2649
▁#455	-10.2652
▁premier	-10.2664
▁oublié	-10.2664
▁#570	-10.2667
▁mange	-10.267
▁pays	-10.2697
▁conduire	-10.2697
▁fenêtre	-10.2697
▁près	-10.2697
▁mettre	-10.2698
our	-10.2718
exco	-10.2723
▁reason	-10.273
▁free	-10.2731
▁visit	-10.2736
ting	-10.275
▁#416	-10.2764
▁Nobody	-10.2764
▁côté	-10.2764
▁weather	-10.2764
cr	-10.2786
▁fast	-10.2793
▁#282	-10.2795
▁boire	-10.2797
▁voyage	-10.28
til	-10.2802
▁vin	-10.2825
▁song	-10.2827
intention	-10.2831
▁game	-10.2834
▁agree	-10.2853
▁fit	-10.2869
ap	-10.2875
Do	-10.2884
▁bu	-10.2885
ke	-10.2887
▁fl	-10.2892
▁story	-10.2898
▁acheter	-10.2904
▁regarder	-10.2912
sea	-10.2917
▁laisser	-10.2923
▁#353	-10.2932
▁#92	-10.2932
▁Quelqu	-10.2951
▁puisse	-10.2958
gé	-10.296
▁Laisse	-10.2962
▁eyes	-10.2963
▁#499	-10.2964
▁verre	-10.297
▁serais	-10.2997
ex	-10.2999
▁#348	-10.3002
▁TV	-10.3006
▁erreur	-10.301
▁tant	-10.3024
▁trust	-10.3031
▁confiance	-10.3035
▁chemin	-10.3035
▁large	-10.3036
ui	-10.3053
▁mois	-10.3053
▁#1847	-10.307
▁#555	-10.307
▁dream	-10.307
▁autant	-10.3072
▁Come	-10.3076
and	-10.3078
ty	-10.3085
▁gr	-10.3095
▁#250	-10.3123
▁#418	-10.3139
▁piano	-10.3139
sharp	-10.3139
▁essayé	-10.3141
▁#356	-10.3174
▁#426	-10.3174
▁trouble	-10.3174
▁stupid	-10.3175
▁reading	-10.3186
ga	-10.3203
▁professeur	-10.3209
▁contre	-10.321
▁#465	-10.3216
nce	-10.3218
▁amie	-10.3225
ist	-10.3229
▁surprise	-10.3239
os	-10.3259
▁Re	-10.3267
▁#519	-10.3274
▁small	-10.3275
▁#563	-10.3277
▁#668	-10.3279
▁guess	-10.3279
▁everyone	-10.328
▁anybody	-10.3284
▁high	-10.3312
▁Dis	-10.3314
▁rend	-10.3324
▁#628	-10.3325
▁hours	-10.3339
▁#337	-10.3345
▁gare	-10.3345
▁ago	-10.3346
▁vélo	-10.335
▁angry	-10.335
▁#471	-10.3365
▁ainsi	-10.3386
▁celui	-10.3389
martin	-10.339
lohi	-10.3402
▁exactement	-10.3421
▁parlé	-10.3425
Ape	-10.3438
fi	-10.3445
ance	-10.3447
▁makes	-10.3455
sbam	-10.3457
▁#361	-10.3457
▁himself	-10.3457
sbamsbam	-10.3457
▁bientôt	-10.346
▁#533	-10.3471
▁#593	-10.3482
▁opinion	-10.3512
▁advice	-10.3529
▁fell	-10.3529
IE	-10.3529
▁#495	-10.3544
▁picture	-10.3553
polon	-10.3565
▁since	-10.3569
▁#379	-10.3571
▁dormir	-10.3575
rait	-10.3583
▁broke	-10.3587
▁#214	-10.3591
entre	-10.3591
▁content	-10.3595
melo	-10.362
▁Tou	-10.3621
Waka	-10.3638
▁safe	-10.3661
▁near	-10.3662
▁having	-10.3663
▁hair	-10.3678
▁vois	-10.3682
▁vient	-10.3682
▁ran	-10.3698
▁playing	-10.3723
anglais	-10.3727
▁called	-10.3727
homme	-10.3729
▁autres	-10.3738
▁exactly	-10.3749
omad	-10.3757
▁#541	-10.3782
▁#142	-10.3786
▁prix	-10.3786
▁die	-10.379
ure	-10.3792
du	-10.3798
I	-10.3806
160	-10.3814
turned	-10.382
▁lie	-10.3821
▁boulot	-10.3823
▁musique	-10.3823
mar	-10.3828
▁pain	-10.3832
▁riche	-10.3839
inti	-10.3848
ja	-10.3858
ence	-10.3858
▁#482	-10.3858
▁sing	-10.3886
▁bicycle	-10.3897
▁dîner	-10.3898
▁Japan	-10.3898
tic	-10.39
▁loin	-10.3906
▁win	-10.3915
ler	-10.3916
to	-10.3918
▁endroit	-10.3922
▁lu	-10.3925
▁Japon	-10.3927
rais	-10.3934
▁afternoon	-10.3935
▁caught	-10.3935
ilohi	-10.3956
▁class	-10.3961
▁students	-10.3962
▁number	-10.3973
▁#468	-10.3981
ain	-10.3981
▁#456	-10.3998
▁#576	-10.3999
▁plait	-10.4012
▁lieu	-10.4017
▁beau	-10.4017
ru	-10.4023
pé	-10.4028
▁commence	-10.4033
▁lives	-10.4036
▁#496	-10.4043
▁alors	-10.4049
▁genre	-10.4049
▁red	-10.4051
ille	-10.4079
▁#710	-10.4087
▁dress	-10.412
▁gros	-10.4124
▁probablement	-10.4126
avait	-10.4129
▁decided	-10.413
▁occupée	-10.4151
▁country	-10.4164
▁Whi	-10.4164
▁entre	-10.4181
▁vis	-10.4199
pawn	-10.4202
▁#573	-10.4202
▁type	-10.4202
▁Mes	-10.4207
▁prochaine	-10.421
sic	-10.4233
▁#553	-10.4236
▁#644	-10.4241
▁interesting	-10.4242
▁hot	-10.4243
▁Peut	-10.4252
avion	-10.4255
▁travers	-10.4265
iv	-10.4267
▁pouvais	-10.428
▁interested	-10.4281
ies	-10.4292
eur	-10.4296
▁touch	-10.4312
▁#590	-10.4319
▁message	-10.4319
gall	-10.434
▁probabl	-10.4344
▁times	-10.4352
imp	-10.4355
▁radio	-10.4358
▁#1293	-10.4358
▁appreciate	-10.4358
▁cheveux	-10.4358
▁décidé	-10.4363
ché	-10.4368
▁fou	-10.4378
hi	-10.4391
▁#400	-10.4398
▁#286	-10.4405
▁eating	-10.4422
▁worry	-10.4432
▁journal	-10.4437
▁says	-10.4438
▁arrived	-10.4457
▁histoire	-10.4458
▁penser	-10.4463
kar	-10.4471
▁Her	-10.448
▁payer	-10.4484
▁thinking	-10.4485
▁assis	-10.449
▁#326	-10.4493
▁nos	-10.4499
▁stand	-10.4513
Whi	-10.4517
▁proud	-10.4517
▁short	-10.4547
der	-10.4555
▁première	-10.4557
▁town	-10.4557
▁fier	-10.4558
▁Laissez	-10.4562
▁attendre	-10.4564
▁visite	-10.4575
▁box	-10.4597
tri	-10.4603
iba	-10.4607
▁#581	-10.4632
▁promise	-10.4637
▁#345	-10.4637
▁patient	-10.4637
▁R	-10.4638
vert	-10.464
▁#188	-10.4643
▁miss	-10.4644
ét	-10.4664
▁#589	-10.4669
ko	-10.4671
▁forgot	-10.4678
▁thé	-10.4679
▁#211	-10.4679
▁trip	-10.468
lu	-10.4687
▁#212	-10.4713
▁dead	-10.4741
agit	-10.4741
▁surpris	-10.4745
▁#2541	-10.4759
habitude	-10.4759
▁different	-10.4759
▁respect	-10.476
▁cost	-10.4761
688	-10.4762
erab	-10.4775
▁Tokyo	-10.48
▁dehors	-10.48
slay	-10.48
▁Peu	-10.4805
▁#574	-10.4809
▁end	-10.4816
▁Fais	-10.4816
bas	-10.4821
▁#407	-10.4841
▁#395	-10.4841
▁#724	-10.4841
▁produit	-10.4841
▁through	-10.4841
▁homework	-10.4842
▁advised	-10.4843
▁dispose	-10.487
▁#645	-10.4872
▁#411	-10.4883
▁cinq	-10.4887
▁chanter	-10.4902
▁#638	-10.4902
▁blessé	-10.4903
▁Go	-10.4909
▁#447	-10.4924
▁Japanese	-10.4924
▁snow	-10.4924
▁appris	-10.4924
alex	-10.4929
euse	-10.4931
qui	-10.4935
▁In	-10.4947
▁#1339	-10.4948
▁chaud	-10.4952
▁sent	-10.4953
▁#561	-10.4955
▁#2406	-10.4956
▁#1330	-10.4956
▁sorte	-10.4959
▁#560	-10.496
▁faim	-10.4966
▁senti	-10.4968
▁rencontrer	-10.4992
▁Everybody	-10.5008
urs	-10.501
ity	-10.5013
▁age	-10.5018
he	-10.5021
▁ex	-10.5026
▁#643	-10.505
▁mauvaise	-10.5052
▁under	-10.5095
▁rappelle	-10.5103
▁#517	-10.5129
▁#544	-10.5129
fer	-10.5132
toothed	-10.5134
▁choix	-10.5134
▁#321	-10.5139
▁catch	-10.5154
▁W	-10.5161
▁Look	-10.5177
▁concert	-10.5177
▁favorite	-10.5177
▁capable	-10.5177
▁daughter	-10.5178
▁#1347	-10.5179
▁lose	-10.5183
▁#354	-10.5188
▁Pourri	-10.5202
▁#397	-10.5214
▁#2643	-10.5219
▁#434	-10.5219
▁auparavant	-10.5219
▁#138	-10.523
▁leurs	-10.5231
▁vol	-10.5237
▁laisse	-10.5245
quelle	-10.5247
ful	-10.5259
▁#521	-10.5262
▁become	-10.5262
▁peuvent	-10.5262
▁arrêté	-10.5266
▁montre	-10.5278
▁#463	-10.5283
pri	-10.5285
▁#509	-10.5305
▁taxi	-10.5308
rez	-10.5321
▁puis	-10.5333
▁#436	-10.5339
▁#554	-10.5349
▁baby	-10.5349
qu	-10.5351
▁later	-10.5353
▁#2408	-10.5354
▁arm	-10.5362
up	-10.537
▁Vot	-10.538
ira	-10.5381
▁choice	-10.5392
aper	-10.5394
▁against	-10.5398
▁pl	-10.5399
année	-10.542
▁sign	-10.5424
▁finish	-10.543
▁#764	-10.5436
igne	-10.5443
▁dites	-10.5454
▁Keep	-10.5457
▁#430	-10.5467
▁#546	-10.5469
▁news	-10.547
tin	-10.5474
▁kept	-10.548
▁born	-10.548
▁E	-10.5481
▁étais	-10.5493
▁#24022	-10.5497
▁penses	-10.551
▁#531	-10.5511
▁offer	-10.5514
▁rich	-10.5523
▁#404	-10.5524
▁#520	-10.5524
▁#543	-10.5524
▁nécessaire	-10.5524
emb	-10.5525
▁listen	-10.5525
325	-10.5526
▁devoirs	-10.5533
▁#1317	-10.5533
▁apprendre	-10.5558
▁Pourrai	-10.5561
▁désolée	-10.5562
▁living	-10.5568
tor	-10.5569
▁essayer	-10.5573
op	-10.5575
▁prochain	-10.5603
▁#2546	-10.5606
▁montrer	-10.5606
ated	-10.5609
▁pouvait	-10.5612
▁tree	-10.5619
▁rencontré	-10.5623
iste	-10.5624
do	-10.5624
▁classe	-10.5627
▁yours	-10.5637
▁#657	-10.5652
▁outside	-10.5657
▁marcher	-10.5666
chto	-10.5672
▁sit	-10.5682
▁#187	-10.5687
▁saying	-10.5689
▁simple	-10.57
▁force	-10.5702
▁hands	-10.5705
▁wine	-10.5725
ball	-10.573
▁appelé	-10.5733
▁business	-10.5747
▁reçu	-10.5747
▁immédiatement	-10.5747
▁discuter	-10.5748
▁#235	-10.5754
▁#18415	-10.577
▁Pour	-10.5774
Bru	-10.5804
▁#1356	-10.5805
▁shoes	-10.5807
▁tea	-10.5822
ph	-10.5829
▁#1300	-10.5836
▁strong	-10.5838
▁report	-10.5838
▁hat	-10.5855
▁head	-10.5856
▁nouvelles	-10.5863
cl	-10.5868
▁machine	-10.5883
▁hungry	-10.5883
niv	-10.5894
▁information	-10.5897
▁entendre	-10.5904
▁sac	-10.5913
▁#515	-10.5922
▁façon	-10.5929
▁#480	-10.5935
▁pensez	-10.5942
▁allons	-10.5947
▁cut	-10.5948
cher	-10.5949
▁changer	-10.5951
▁#422	-10.5953
▁tort	-10.5962
▁computer	-10.5975
▁#357	-10.6016
▁girlfriend	-10.6022
▁préfère	-10.6022
▁étions	-10.6022
▁taking	-10.6022
▁making	-10.6023
▁vont	-10.6023
▁sound	-10.6031
▁#572	-10.6045
▁vers	-10.6048
▁date	-10.6055
▁Au	-10.6055
▁terminé	-10.6062
▁clean	-10.6062
imm	-10.6066
▁#475	-10.6068
▁#773	-10.6068
▁cours	-10.6102
été	-10.6107
ées	-10.612
▁répondre	-10.6121
appelle	-10.6144
▁#1314	-10.6149
The	-10.616
▁#577	-10.6162
▁sécurité	-10.6162
▁peine	-10.6162
▁front	-10.6162
▁problèmes	-10.6165
▁team	-10.6188
▁anglais	-10.6189
▁#2549	-10.6194
▁break	-10.6197
▁#406	-10.6209
▁#661	-10.6209
▁commencé	-10.621
instant	-10.6212
▁Ces	-10.6222
▁#484	-10.6242
▁hospital	-10.625
▁arriver	-10.6251
ible	-10.6252
▁chaussures	-10.6256
▁handle	-10.6263
▁savait	-10.6264
P	-10.6265
▁older	-10.6274
aus	-10.6289
Of	-10.6291
▁#355	-10.6304
▁behind	-10.6304
▁décision	-10.6304
▁magasin	-10.6304
▁bière	-10.6305
▁paper	-10.6305
▁chercher	-10.6312
▁perdre	-10.6318
▁month	-10.6325
▁#9531	-10.6333
ade	-10.6341
▁#2647	-10.6345
▁#550	-10.6346
rotter	-10.6349
▁Monday	-10.6352
▁impossible	-10.6352
▁public	-10.6352
bourd	-10.6354
ud	-10.6365
ear	-10.6378
▁rentrer	-10.6386
▁#528	-10.6394
696	-10.6402
▁seat	-10.6421
▁#175	-10.6448
▁boîte	-10.6448
▁Some	-10.6449
▁deal	-10.6463
log	-10.6463
▁regarde	-10.6483
▁emploi	-10.6491
▁#369	-10.6497
▁bébé	-10.6497
▁company	-10.6497
▁lumière	-10.6497
▁woman	-10.6497
rational	-10.6497
clock	-10.6497
▁aimé	-10.6498
▁tomber	-10.6516
▁fin	-10.6517
▁Pense	-10.6541
▁#690	-10.6546
▁santé	-10.6546
time	-10.6551
eb	-10.6559
488	-10.6563
▁savez	-10.6574
▁explain	-10.6588
▁#481	-10.6595
▁hurry	-10.6595
▁summer	-10.6595
▁rue	-10.6597
▁needs	-10.6602
teau	-10.6605
inter	-10.6616
shir	-10.6627
▁real	-10.6628
▁sorti	-10.6635
▁revoir	-10.6644
▁paid	-10.6644
▁nombreux	-10.6644
ish	-10.6645
▁vieille	-10.6651
▁#2645	-10.6653
▁chanson	-10.6658
▁propre	-10.6658
▁#660	-10.6661
▁needed	-10.6667
▁#470	-10.6669
▁parce	-10.6682
▁lundi	-10.6693
▁#1340	-10.6694
▁beer	-10.6699
▁cas	-10.67
out	-10.6704
▁gagner	-10.671
▁souci	-10.671
▁eaten	-10.6716
su	-10.6721
▁#2407	-10.673
▁mains	-10.6733
▁order	-10.6739
▁serious	-10.6741
▁rouge	-10.6743
▁present	-10.6743
▁#673	-10.6744
▁Sais	-10.6754
▁poste	-10.6756
▁hour	-10.676
arbre	-10.6787
▁fix	-10.6787
▁#700	-10.6787
▁cadeau	-10.6793
examen	-10.6806
▁five	-10.6845
▁full	-10.6849
▁#532	-10.6852
▁coûte	-10.6852
▁bas	-10.6871
ble	-10.6888
▁#424	-10.6894
▁voulons	-10.6894
▁route	-10.6894
▁ferai	-10.6896
▁langue	-10.691
▁key	-10.6911
▁stayed	-10.6916
275	-10.6932
▁works	-10.6933
▁#1806	-10.6945
▁#500	-10.6945
▁bruit	-10.6945
▁libre	-10.6945
▁men	-10.6947
▁fus	-10.6948
▁soin	-10.6965
rons	-10.6969
▁#18416	-10.6972
▁cook	-10.6987
▁#414	-10.699
▁stupide	-10.6994
▁student	-10.6998
▁fumer	-10.6999
▁hit	-10.7003
L	-10.7036
▁#631	-10.7041
▁#558	-10.7042
▁breakfast	-10.7047
▁decision	-10.7047
▁télévision	-10.7047
▁funny	-10.7047
▁quickly	-10.7047
▁télé	-10.7047
▁clothes	-10.7048
▁rapidement	-10.7048
▁city	-10.7051
▁OK	-10.7054
▁rêve	-10.7065
ale	-10.707
ayez	-10.7093
▁#431	-10.7098
▁devenir	-10.7098
▁invited	-10.7101
▁second	-10.711
▁allez	-10.7111
accident	-10.7119
▁écrire	-10.7121
▁final	-10.7123
bou	-10.713
▁#2376	-10.7132
chi	-10.7132
use	-10.7137
▁fish	-10.7145
▁complètement	-10.715
▁crazy	-10.715
▁store	-10.715
pik	-10.7151
▁Faites	-10.7151
▁Dites	-10.7151
▁#659	-10.7152
▁dance	-10.7169
lon	-10.7188
▁#1358	-10.7188
▁donne	-10.7194
▁#712	-10.7197
▁#670	-10.7202
▁derrière	-10.7202
▁numéro	-10.7202
arrêter	-10.7203
▁#707	-10.7206
▁#23619	-10.7207
▁Pensez	-10.7208
▁commencer	-10.7222
▁Me	-10.7225
ip	-10.7231
▁retour	-10.7231
▁#9532	-10.7233
▁#776	-10.7239
▁expect	-10.7243
▁idiot	-10.7243
▁kill	-10.7251
ris	-10.7258
▁aurait	-10.7258
▁dark	-10.7259
gg	-10.7271
▁#486	-10.7275
▁ri	-10.73
▁Australia	-10.7307
▁vouloir	-10.7307
▁charge	-10.7308
▁cent	-10.731
▁plein	-10.7312
▁#1341	-10.7333
▁#233	-10.7336
▁per	-10.7337
662	-10.7339
hôtel	-10.736
▁voulu	-10.736
▁#527	-10.736
pierre	-10.736
▁#1309	-10.7363
ach	-10.7369
▁watching	-10.7372
▁usual	-10.7375
▁pen	-10.738
▁sat	-10.7381
cor	-10.7397
▁meilleure	-10.74
▁#594	-10.7402
▁#2540	-10.7413
▁#394	-10.7413
▁#490	-10.7413
▁asleep	-10.7413
▁vacances	-10.7413
▁trente	-10.7413
Anth	-10.7414
▁Savez	-10.7419
▁plane	-10.7426
▁New	-10.7429
▁#1348	-10.7444
ought	-10.745
▁bag	-10.7456
half	-10.7457
▁manque	-10.746
▁#2642	-10.7467
▁étudier	-10.7469
▁weekend	-10.747
étranger	-10.7477
▁bring	-10.7479
305	-10.7486
▁#11400	-10.7488
▁clé	-10.7499
▁payé	-10.7505
▁ju	-10.7513
▁Comme	-10.7519
▁#613	-10.7521
▁street	-10.7521
▁chapeau	-10.7521
Qu	-10.7521
▁cup	-10.7525
▁spent	-10.7529
▁droit	-10.7546
▁guy	-10.7552
▁prend	-10.756
Sus	-10.7565
▁#615	-10.7569
▁#600	-10.7569
sez	-10.757
▁souviens	-10.7575
▁projet	-10.7575
mu	-10.7576
▁feeling	-10.7576
▁four	-10.7578
ient	-10.7579
▁hotel	-10.7579
▁scared	-10.7579
▁wearing	-10.758
▁roman	-10.7589
cé	-10.7596
▁sun	-10.76
▁court	-10.76
▁thank	-10.7602
▁Cet	-10.762
▁grow	-10.7625
▁correct	-10.7629
▁drunk	-10.7629
▁which	-10.7629
pie	-10.763
▁souhaite	-10.7634
ating	-10.7641
▁#8874	-10.7643
go	-10.7645
▁quiet	-10.7648
of	-10.7675
▁#2326	-10.7676
635	-10.7684
▁bois	-10.7684
gi	-10.7691
▁#18417	-10.7692
hima	-10.7694
1921	-10.7696
▁poser	-10.7696
▁canno	-10.7704
▁Ton	-10.7707
▁ticket	-10.7709
▁#497	-10.7727
▁sp	-10.7731
▁then	-10.7733
▁#2544	-10.7735
▁expensive	-10.7739
▁milk	-10.7739
▁celle	-10.7741
▁poisson	-10.7741
rock	-10.776
▁fasse	-10.7764
ang	-10.7764
▁garder	-10.7765
▁#704	-10.7773
ak	-10.7782
▁cuisine	-10.7783
▁cou	-10.7789
▁kids	-10.7794
▁everybody	-10.7794
▁join	-10.7794
▁cake	-10.7794
▁prefer	-10.7794
▁river	-10.7795
▁robe	-10.7795
▁wear	-10.7803
▁#2644	-10.7836
▁Arrête	-10.7845
▁#1351	-10.7846
▁began	-10.785
▁death	-10.785
▁lait	-10.785
▁font	-10.7851
▁mesure	-10.7852
▁lucky	-10.7855
▁utiliser	-10.7859
▁test	-10.7861
▁rapport	-10.7862
hir	-10.7866
▁#2542	-10.7872
▁lived	-10.7894
hôpital	-10.7905
▁became	-10.7905
▁parc	-10.7913
Shi	-10.7918
▁#21631	-10.7923
▁whe	-10.7929
apou	-10.7935
cour	-10.7947
▁Donne	-10.7947
Del	-10.7959
▁terrible	-10.7962
▁worried	-10.7962
▁building	-10.7962
▁mari	-10.7963
▁goes	-10.7968
▁#391	-10.7972
▁cherche	-10.7975
▁whole	-10.7977
▁pré	-10.7979
▁#489	-10.7982
▁neige	-10.7983
▁ordinateur	-10.7989
▁tall	-10.8001
impression	-10.8016
ia	-10.8016
▁boss	-10.8019
Suisse	-10.8019
▁allée	-10.8028
▁#510	-10.8075
▁Try	-10.8077
▁devant	-10.8084
▁réussi	-10.8087
▁présent	-10.8091
▁#23961	-10.8095
▁prends	-10.8107
▁Par	-10.8117
▁prête	-10.8118
ster	-10.8124
remi	-10.8124
▁conseil	-10.8126
▁#774	-10.8126
▁birthday	-10.8132
▁#611	-10.8132
▁absent	-10.8135
▁changed	-10.8169
val	-10.8172
▁#692	-10.8178
acheter	-10.8179
▁Aucun	-10.819
▁sort	-10.8194
▁leg	-10.8197
▁bras	-10.8201
shi	-10.8203
679	-10.8207
▁accept	-10.8215
▁#350	-10.823
▁noir	-10.8231
▁smoke	-10.8247
▁#2953	-10.8247
▁#443	-10.8247
▁#492	-10.8247
▁Soy	-10.8253
▁studying	-10.8258
▁fat	-10.826
392	-10.8267
▁cher	-10.8271
▁#37319	-10.8272
▁Thank	-10.8279
▁cro	-10.828
▁#22457	-10.8283
▁others	-10.829
▁refuse	-10.8293
▁#405	-10.8305
▁#569	-10.8305
▁Sunday	-10.8305
phil	-10.8306
riez	-10.8311
ase	-10.8314
▁né	-10.8332
▁comes	-10.8336
irai	-10.8358
▁#637	-10.8364
▁between	-10.8364
▁apologize	-10.8364
▁count	-10.8367
▁pleurer	-10.8368
▁killed	-10.8371
tofu	-10.8398
▁intéressant	-10.8409
▁strange	-10.8416
▁check	-10.8417
▁#410	-10.8423
▁guerre	-10.8423
▁plaisir	-10.8423
▁begin	-10.8423
▁worth	-10.8432
▁Was	-10.8433
▁#8869	-10.8437
▁#478	-10.844
▁closed	-10.8449
666	-10.8451
▁#9533	-10.8459
▁#578	-10.847
699	-10.8474
▁excuses	-10.8476
▁#389	-10.8482
▁nombreuses	-10.8482
▁veulent	-10.8482
cy	-10.8483
ran	-10.8493
▁prudent	-10.8534
land	-10.8537
oth	-10.8541
▁#402	-10.8541
▁rire	-10.8545
▁venue	-10.8547
▁pluie	-10.8548
▁faisait	-10.8549
enne	-10.8549
▁#754	-10.8566
aille	-10.8566
ian	-10.8567
▁case	-10.8568
ule	-10.8578
▁gentil	-10.8589
▁terre	-10.8595
▁travel	-10.8596
edict	-10.8601
▁#514	-10.8601
▁wrote	-10.8601
▁ressemble	-10.8602
▁marché	-10.8603
▁#9095	-10.8615
▁helped	-10.8618
▁heart	-10.8626
▁affaires	-10.8627
▁war	-10.8636
▁arrêter	-10.8636
▁Am	-10.8637
▁pa	-10.8643
▁fine	-10.8649
▁#671	-10.8653
ical	-10.8656
imagine	-10.8657
▁#2404	-10.8662
▁stopped	-10.8662
▁rendu	-10.8667
one	-10.867
▁#8870	-10.8676
266	-10.8685
▁#429	-10.8687
270	-10.8688
▁regard	-10.8692
▁ob	-10.8694
151	-10.8696
▁Aime	-10.8697
▁language	-10.8698
180	-10.8721
▁#619	-10.8722
▁Everything	-10.8722
▁Many	-10.8722
▁crime	-10.8731
▁happening	-10.8738
▁problems	-10.8743
▁finir	-10.8757
▁mistakes	-10.8758
123	-10.8765
entendre	-10.8765
▁#505	-10.8783
▁dimanche	-10.8783
▁normal	-10.8783
▁vêtements	-10.8783
▁joke	-10.8783
▁upset	-10.8783
Roi	-10.8793
▁figured	-10.8793
000	-10.8807
100	-10.8829
▁talked	-10.8833
▁#1328	-10.8833
vis	-10.8835
▁words	-10.8843
▁jardin	-10.8844
▁soleil	-10.8844
azel	-10.8845
▁dangerous	-10.8845
▁One	-10.8853
▁missed	-10.8854
▁future	-10.8856
▁#19701	-10.8871
▁entrer	-10.8879
▁sense	-10.8889
Pai	-10.8891
▁demanda	-10.8895
iper	-10.8898
▁kiss	-10.89
▁carte	-10.89
▁#630	-10.8901
▁étudiants	-10.8904
ze	-10.8905
▁#2576	-10.8906
▁smoking	-10.8906
▁suffisamment	-10.8906
▁along	-10.8906
▁super	-10.8907
Sibe	-10.8909
▁coat	-10.8915
▁#37316	-10.8923
269	-10.8937
▁telle	-10.8942
▁resté	-10.8944
▁takes	-10.8945
essaie	-10.8952
attends	-10.8954
▁move	-10.8956
▁worked	-10.8963
lius	-10.8966
▁#1292	-10.8968
▁#403	-10.8968
▁dictionnaire	-10.8968
▁compris	-10.8968
▁grosse	-10.8972
▁forward	-10.8972
265	-10.898
399	-10.8984
wi	-10.8989
▁act	-10.9004
▁connaît	-10.9009
▁#461	-10.9012
320	-10.9012
▁perfect	-10.9028
▁moindre	-10.9031
kins	-10.9031
▁mourir	-10.9031
▁désormais	-10.9032
▁plage	-10.9032
▁mots	-10.9034
▁affaire	-10.9036
per	-10.9042
▁#8871	-10.9046
▁dormi	-10.9046
expliquer	-10.9046
▁speaking	-10.9057
▁liked	-10.9074
essayer	-10.9081
▁#1395	-10.9084
▁discuss	-10.909
▁#713	-10.9094
▁changé	-10.9094
▁allowed	-10.9097
▁ate	-10.9098
▁quiconque	-10.9098
▁tasse	-10.9099
▁beach	-10.9105
▁pre	-10.9109
855	-10.913
▁fera	-10.9132
▁filles	-10.9138
▁fatiguée	-10.9138
▁garden	-10.9141
▁regret	-10.9146
oooo	-10.9157
▁address	-10.9157
▁#1349	-10.9158
▁manteau	-10.9158
▁expected	-10.9164
▁donc	-10.9166
▁#735	-10.9201
▁clear	-10.9218
▁#507	-10.9221
▁thirty	-10.9221
itero	-10.9224
▁#435	-10.9237
▁devenu	-10.9242
▁lis	-10.9248
▁quatre	-10.9249
▁#23960	-10.9251
▁#6843	-10.9259
the	-10.9267
ste	-10.927
▁marche	-10.9274
▁#2952	-10.9285
▁John	-10.9285
▁dictionary	-10.9285
▁résoudre	-10.9285
▁#1360	-10.9286
▁liste	-10.9291
wa	-10.9293
▁teach	-10.9298
▁evening	-10.9301
▁#467	-10.9303
▁ski	-10.9305
▁#1354	-10.9309
▁volé	-10.9329
600	-10.934
▁health	-10.9342
▁#3181	-10.9349
▁#703	-10.9349
▁Lorsqu	-10.9349
▁rivière	-10.9349
▁supposé	-10.9349
▁furent	-10.9349
▁faute	-10.9354
▁At	-10.9372
▁speaks	-10.9379
▁sell	-10.9391
▁pied	-10.9396
▁tour	-10.9406
▁#462	-10.9411
▁#3200	-10.9414
▁#547	-10.9414
▁#697	-10.9414
▁piece	-10.9415
▁#8875	-10.9431
▁sache	-10.9434
ight	-10.9447
▁amies	-10.9463
▁#655	-10.9469
▁#1311	-10.9471
▁waste	-10.9474
étudie	-10.9477
▁An	-10.9477
▁#473	-10.948
▁condition	-10.948
▁necessary	-10.948
▁running	-10.948
▁Prends	-10.948
▁price	-10.9481
ond	-10.9482
▁#8872	-10.9496
▁walked	-10.9497
▁plans	-10.9502
histoire	-10.951
▁bar	-10.9515
▁intelligent	-10.9518
▁porter	-10.9521
ally	-10.953
▁#25448	-10.9533
▁#525	-10.9545
▁#390	-10.9545
▁#420	-10.9545
▁Certain	-10.9545
▁noise	-10.9548
▁vaut	-10.9556
amour	-10.9557
391)	-10.9563
odin	-10.9568
▁broken	-10.9572
▁#801	-10.9575
▁photos	-10.9577
▁#474	-10.9578
▁Des	-10.958
▁#22889	-10.9581
ually	-10.9583
écrire	-10.9583
écouter	-10.959
▁#1841	-10.9598
▁#2359	-10.9602
▁Christmas	-10.9612
▁solution	-10.9612
▁blame	-10.9614
▁American	-10.9622
ling	-10.9626
▁doute	-10.9626
dessus	-10.9651
▁Here	-10.9652
▁fond	-10.9671
▁#2547	-10.9677
▁réparer	-10.9678
▁village	-10.9678
adresse	-10.9678
Mouse	-10.9678
▁Someone	-10.9679
▁hold	-10.9679
▁road	-10.9679
▁Rien	-10.9679
▁match	-10.968
▁longue	-10.9683
▁#23262	-10.9688
▁#11401	-10.9707
▁known	-10.9708
▁#20259	-10.971
▁warm	-10.9715
▁list	-10.9715
▁Quelque	-10.9717
▁horse	-10.972
241	-10.9734
phi	-10.9734
▁#632	-10.9736
▁#1808	-10.9745
▁famous	-10.9745
▁disappointed	-10.9747
▁least	-10.9747
▁fleurs	-10.975
▁camera	-10.9757
▁perd	-10.9759
timent	-10.9759
aise	-10.9781
▁quitter	-10.9788
ries	-10.9789
fu	-10.9795
fr	-10.9795
ane	-10.9795
▁Se	-10.9807
▁repas	-10.9813
▁#498	-10.9813
▁environ	-10.9813
▁#387	-10.9814
▁novel	-10.9816
▁half	-10.9826
▁Ta	-10.9827
▁années	-10.9832
rust	-10.9836
▁guitar	-10.9838
▁#1337	-10.9853
▁bl	-10.9854
▁mit	-10.9869
▁#606	-10.9871
▁contact	-10.9877
▁#2377	-10.9878
▁#3330	-10.988
adjust	-10.9881
▁#494	-10.9881
▁#766	-10.9881
▁#772	-10.9881
▁poor	-10.9883
▁fonctionne	-10.9897
680	-10.9897
▁#37292	-10.9902
oublie	-10.9908
▁#1844	-10.991
uly	-10.9913
▁realize	-10.9921
ière	-10.9923
▁bill	-10.9924
fant	-10.9929
math	-10.9932
aies	-10.9942
▁mad	-10.9946
▁#2527	-10.9949
▁completely	-10.995
▁risk	-10.9952
▁chiens	-10.9958
▁proche	-10.996
▁happens	-10.9965
▁Te	-10.9966
▁#2392	-10.9966
cer	-10.9966
▁étrange	-10.997
cent	-10.9973
▁ceux	-10.9979
▁#37305	-10.9982
▁side	-10.9983
▁#9535	-10.9988
▁#9534	-10.9988
▁continue	-11.0015
▁To	-11.0018
▁#386	-11.0018
▁#428	-11.0018
▁#446	-11.0018
▁#513	-11.0018
▁#522	-11.0018
▁#551	-11.0018
▁#571	-11.0018
▁bizarre	-11.0018
▁written	-11.0018
▁smell	-11.0018
▁talent	-11.0018
▁chair	-11.0023
▁Were	-11.0026
▁Allez	-11.0031
▁couple	-11.0036
prit	-11.0042
▁jeu	-11.0045
non	-11.0048
▁#20168	-11.0067
▁aidé	-11.0069
▁rentré	-11.0074
▁#621	-11.0087
▁#383	-11.0088
▁succès	-11.0088
kio	-11.0088
▁bateau	-11.0089
▁seeing	-11.0098
▁ouvert	-11.0109
▁argent	-11.011
▁drinking	-11.0112
▁#1336	-11.0131
▁vent	-11.0137
▁Ses	-11.0144
▁follow	-11.0146
rie	-11.0149
expérience	-11.0158
▁feriez	-11.0158
▁risque	-11.0158
▁sang	-11.017
▁bother	-11.0172
occuper	-11.0176
▁dogs	-11.0179
▁suite	-11.0179
yph	-11.0183
▁Regarde	-11.0185
▁Thanks	-11.019
▁#18394	-11.019
▁#1329	-11.0214
▁devoir	-11.0214
▁papier	-11.0228
▁weight	-11.0244
ton	-11.0248
▁#22760	-11.0262
332	-11.0266
▁regardé	-11.0269
588	-11.0294
lke	-11.0298
▁#493	-11.0299
▁actually	-11.0299
loe	-11.0304
▁crying	-11.0304
▁#1308	-11.0306
io	-11.0314
▁tableau	-11.0317
▁hommes	-11.0324
▁#1318	-11.0334
attendre	-11.0341
▁tombé	-11.0355
▁owe	-11.036
▁#439	-11.0365
▁#691	-11.0365
eu	-11.037
▁#2421	-11.0371
▁avocat	-11.0371
▁poids	-11.0371
▁somewhere	-11.0371
▁swimming	-11.0371
▁floor	-11.0371
▁cri	-11.0371
▁certaine	-11.0373
▁équipe	-11.0374
bond	-11.0375
▁Donnez	-11.0377
▁bord	-11.0378
▁#21119	-11.039
▁So	-11.0396
▁gets	-11.0409
ean	-11.0439
▁bibliothèque	-11.0443
▁leaving	-11.0443
▁permission	-11.0443
▁#1286	-11.0443
human	-11.0443
▁Prenez	-11.0444
▁bat	-11.0446
▁Paris	-11.0446
cfr	-11.0447
cha	-11.0448
▁#2420	-11.0453
▁#8873	-11.0461
▁#37307	-11.0475
▁loves	-11.0482
▁calme	-11.049
erra	-11.0491
▁rules	-11.0492
▁#330	-11.0506
pan	-11.0507
▁#639	-11.051
Little	-11.0515
▁#584	-11.0515
▁#678	-11.0515
▁Stay	-11.0515
▁husband	-11.0515
▁dangereux	-11.0518
▁taken	-11.053
Sis	-11.0534
▁#3312	-11.0535
▁flowers	-11.054
300	-11.0546
432	-11.0549
▁règles	-11.0558
▁success	-11.056
Sno	-11.0577
nes	-11.058
▁consider	-11.0582
▁luck	-11.0586
▁#448	-11.0588
▁#588	-11.0588
▁#665	-11.0588
▁parapluie	-11.0588
▁plupart	-11.0588
▁umbrella	-11.0588
▁writing	-11.0588
▁York	-11.0588
▁triste	-11.0588
▁amoureux	-11.0588
▁black	-11.0589
▁Dans	-11.0594
▁learned	-11.0603
▁attendu	-11.0613
▁#23621	-11.0628
née	-11.0629
▁#2539	-11.0634
autres	-11.0643
586	-11.0644
▁glass	-11.0656
eople	-11.0661
▁#437	-11.0662
entreprise	-11.0662
▁#504	-11.0662
▁#677	-11.0662
▁alive	-11.0663
▁#20925	-11.0672
▁#1353	-11.0691
▁sale	-11.0699
▁#2646	-11.07
755	-11.0709
▁#1365	-11.0714
▁#1306	-11.0726
▁lawyer	-11.0736
▁library	-11.0736
▁shopping	-11.0736
▁telephone	-11.0736
▁distance	-11.0736
▁honest	-11.0736
▁painting	-11.074
287	-11.0746
▁année	-11.0746
▁uncle	-11.075
▁#291	-11.0764
▁#23908	-11.0767
list	-11.0777
365	-11.0779
▁sad	-11.0786
▁#20169	-11.0787
▁seconde	-11.0793
▁ride	-11.0794
▁#37303	-11.0801
▁tie	-11.0807
▁#23230	-11.081
▁#617	-11.081
▁#723	-11.081
▁proposition	-11.081
▁color	-11.081
▁pauvre	-11.081
Max	-11.0812
▁coin	-11.0815
▁sommeil	-11.0816
Boy	-11.0817
169	-11.082
▁sc	-11.0821
▁#1312	-11.0821
ush	-11.0834
▁#10964	-11.0849
▁#2545	-11.0854
▁#1815	-11.0859
tant	-11.0876
▁#3141	-11.0885
▁#716	-11.0885
▁convaincu	-11.0885
▁endormi	-11.0885
▁pleuvoir	-11.0885
▁recognize	-11.0885
▁somebody	-11.0885
▁bird	-11.0885
▁autour	-11.0886
▁finalement	-11.0886
▁Après	-11.0886
RE	-11.0886
▁nervous	-11.0889
esprit	-11.0898
▁#1350	-11.0898
▁#7839	-11.09
281	-11.0902
▁form	-11.0906
ng	-11.0913
▁#20911	-11.0914
▁satisfait	-11.0914
255	-11.0918
▁Soi	-11.0921
▁fall	-11.0925
▁haut	-11.0926
wit	-11.0928
▁tuer	-11.0941
254	-11.0946
ront	-11.0959
▁#508	-11.0961
▁#526	-11.0961
▁#599	-11.0961
▁goût	-11.0961
▁sérieux	-11.0961
▁chemise	-11.0961
▁courage	-11.0961
▁Voici	-11.0962
▁shirt	-11.0967
▁rendez	-11.097
▁pr	-11.0971
▁#24084	-11.0988
▁loved	-11.0991
ego	-11.0993
150	-11.1013
▁#778	-11.1016
auriez	-11.1017
▁suit	-11.1018
ssé	-11.1023
▁elles	-11.1024
▁#556	-11.1037
▁lunettes	-11.1037
▁réjouis	-11.1037
▁descend	-11.1038
▁#622	-11.1039
▁#21117	-11.1049
CE	-11.105
▁faisons	-11.105
▁#18605	-11.1056
▁#596	-11.1061
écoute	-11.1064
tho	-11.1065
▁présenter	-11.1066
196	-11.1066
▁hors	-11.1066
▁#3731	-11.1078
▁fermé	-11.1084
▁différent	-11.1095
▁#3273	-11.11
304	-11.1101
ssem	-11.1104
278	-11.1105
▁#674	-11.1107
▁solve	-11.1108
609	-11.1111
▁#758	-11.1111
▁foot	-11.1114
▁#3922	-11.1114
▁newspaper	-11.1114
▁#770	-11.1114
▁sentir	-11.1115
▁vacation	-11.1116
▁#3260	-11.1122
awa	-11.1125
char	-11.1128
déjeuner	-11.1129
▁oncle	-11.1133
▁opened	-11.1136
▁sold	-11.1137
▁set	-11.1144
how	-11.1147
assi	-11.1162
she	-11.1166
ray	-11.1171
▁fact	-11.1173
▁#1345	-11.1174
▁pommes	-11.1175
▁#1313	-11.1179
▁moyen	-11.1185
▁smart	-11.1188
▁#380	-11.1192
▁blague	-11.1192
▁baseball	-11.1192
▁white	-11.1192
▁courant	-11.1193
où	-11.1194
attendais	-11.1196
▁#1342	-11.1203
▁appareil	-11.1207
bra	-11.1217
▁#1849	-11.1219
598	-11.1225
▁plusieur	-11.1226
▁cru	-11.123
▁rid	-11.1235
▁Pu	-11.1235
▁contente	-11.1242
▁line	-11.1244
enfant	-11.1251
▁réussir	-11.1254
▁Et	-11.1259
▁#708	-11.126
▁donna	-11.1268
▁#3168	-11.127
▁#511	-11.127
▁#602	-11.127
▁envoyé	-11.127
▁experience	-11.127
oseph	-11.127
▁amusant	-11.127
avance	-11.127
▁danser	-11.1273
▁tenir	-11.1273
490	-11.1276
▁listening	-11.128
▁serez	-11.128
925	-11.1283
▁sleeping	-11.1289
▁desk	-11.129
▁femmes	-11.1296
▁#23019	-11.1298
entends	-11.1327
▁#427	-11.1335
▁borrow	-11.1343
▁#415	-11.1349
▁promesse	-11.1349
▁couleur	-11.1349
▁chaise	-11.1349
▁pire	-11.1351
▁#44010	-11.1363
▁serve	-11.1365
722	-11.1369
tru	-11.1373
▁#23962	-11.1376
après	-11.1388
▁habit	-11.1389
445	-11.1391
▁#2387	-11.1405
▁sever	-11.1406
▁#20166	-11.1407
▁#1359	-11.1414
▁#702	-11.1418
▁#609	-11.1423
cons	-11.1423
▁#6817	-11.1428
▁Beaucoup	-11.1428
▁fault	-11.1428
▁speech	-11.1428
▁commença	-11.1428
▁foreign	-11.1428
asseoir	-11.1428
▁shot	-11.1428
PE	-11.1429
ouille	-11.1431
▁Arrêtez	-11.1435
acha	-11.1438
ken	-11.1439
▁#22108	-11.1441
avis	-11.1443
▁forcé	-11.1446
▁tué	-11.1448
▁gun	-11.1449
appeler	-11.1467
407	-11.1477
309	-11.1484
▁figure	-11.1489
▁save	-11.1494
393	-11.1501
▁enseignant	-11.1506
▁favor	-11.1508
▁#3142	-11.1508
▁banque	-11.1508
▁mountain	-11.1508
pillon	-11.1508
▁Plus	-11.1508
▁difference	-11.1508
▁deserve	-11.1508
▁salle	-11.1508
▁mariage	-11.1509
▁#378	-11.1511
▁service	-11.1513
action	-11.1517
▁#22459	-11.1553
193	-11.1553
184	-11.1553
▁fermer	-11.1556
▁ship	-11.1564
▁spoke	-11.1574
▁#608	-11.1583
▁#3129	-11.1589
▁différence	-11.1589
▁medicine	-11.1589
▁#601	-11.1589
▁Nothing	-11.1589
▁bank	-11.1589
▁habitué	-11.1589
gris	-11.1591
NE	-11.1596
▁#23316	-11.1598
▁bal	-11.1608
▁course	-11.1609
yes	-11.161
ix	-11.1614
728	-11.1616
▁willing	-11.1619
319	-11.1627
268	-11.1637
petit	-11.1645
arra	-11.1646
181	-11.1648
▁guys	-11.1652
312	-11.1654
▁viendra	-11.1656
manu	-11.1658
▁sport	-11.1667
▁girls	-11.1667
▁#2640	-11.167
▁#385	-11.167
▁Désolé	-11.167
▁parfois	-11.167
▁responsable	-11.167
▁#2429	-11.167
▁suspect	-11.167
▁parole	-11.1672
▁#396	-11.1677
▁#23317	-11.1679
▁#18859	-11.168
amp	-11.1685
▁Now	-11.1686
nju	-11.1694
▁#1322	-11.1704
▁japonais	-11.1714
460	-11.1717
▁#22456	-11.1718
ume	-11.1719
197	-11.1721
▁keys	-11.1725
ness	-11.1729
▁#2383	-11.1747
016	-11.1751
▁patron	-11.1751
▁doubt	-11.1752
▁After	-11.1752
▁college	-11.1752
▁rappeler	-11.1753
▁coucher	-11.1756
qué	-11.1759
▁#18867	-11.1764
▁mien	-11.1764
▁yen	-11.1769
▁cassé	-11.1769
▁#18604	-11.1772
▁arme	-11.1778
▁avais	-11.1779
▁shower	-11.178
oli	-11.178
▁star	-11.1784
▁#22761	-11.1792
709	-11.1793
▁bout	-11.1812
▁laugh	-11.1822
▁sol	-11.1824
gue	-11.1825
▁passée	-11.1828
▁#1299	-11.1835
▁#1439	-11.1835
▁#605	-11.1835
▁breath	-11.1835
▁début	-11.1835
▁parviens	-11.1835
espoir	-11.1835
▁signifie	-11.1835
▁revenu	-11.1835
▁cheval	-11.1835
▁gagné	-11.1836
▁either	-11.1836
▁lend	-11.1837
▁durant	-11.184
IG	-11.184
▁taille	-11.1844
ong	-11.1849
▁#22890	-11.1851
marc	-11.1851
Ai	-11.1857
▁invité	-11.1859
▁#18502	-11.1865
323	-11.1875
195	-11.1887
jo	-11.1902
▁exp	-11.1909
209	-11.1909
▁#616	-11.1913
▁magazine	-11.1918
▁belong	-11.1918
▁courir	-11.1918
673	-11.1919
▁#18871	-11.1929
▁#7544	-11.1929
▁lac	-11.1939
▁parlez	-11.1941
▁#36364	-11.1947
▁dirait	-11.1951
▁#706	-11.1962
accepter	-11.1966
ateur	-11.1997
▁#501	-11.2002
▁#715	-11.2002
▁abroad	-11.2002
▁excellent	-11.2002
▁gift	-11.2002
▁sometimes	-11.2002
▁ill	-11.2004
▁prepared	-11.2005
▁Allons	-11.2011
aie	-11.2021
▁préféré	-11.2028
794	-11.203
▁#20926	-11.2035
276	-11.2037
▁ignor	-11.2037
▁lever	-11.2039
▁conseils	-11.2043
▁prêter	-11.2045
▁#22474	-11.2051
▁#2416	-11.2054
▁meal	-11.2055
▁anniversaire	-11.2057
▁sounds	-11.2072
uma	-11.2074
▁means	-11.2075
quel	-11.2083
hose	-11.2084
▁#5289	-11.2086
▁pretend	-11.2087
empêcher	-11.2087
▁#438	-11.2087
▁Something	-11.2087
▁admit	-11.2087
▁club	-11.2087
▁conduit	-11.2087
▁shut	-11.2087
▁kid	-11.2088
▁camp	-11.209
303	-11.2099
cation	-11.2105
▁#1346	-11.2107
▁nu	-11.2109
▁connaître	-11.2117
▁promised	-11.2118
▁garde	-11.2124
▁#21872	-11.2125
▁menti	-11.2128
495	-11.2132
▁ice	-11.2134
rée	-11.2136
ki	-11.2151
▁#636	-11.2151
211	-11.216
cal	-11.2162
▁voyager	-11.2165
▁fight	-11.2167
▁#1310	-11.2168
223	-11.217
▁na	-11.2171
▁#2412	-11.2172
▁boyfriend	-11.2172
▁drôle	-11.2172
▁innocent	-11.2172
▁football	-11.2173
▁cry	-11.2178
organ	-11.2192
▁Australie	-11.2192
arpe	-11.2207
▁send	-11.2208
▁jeunes	-11.2215
irent	-11.2219
▁morte	-11.2233
▁censé	-11.224
idée	-11.2245
por	-11.225
888	-11.2256
▁obligé	-11.2256
intérieur	-11.2259
▁#1406	-11.2259
▁#1804	-11.2259
▁#1809	-11.2259
▁#412	-11.2259
▁pizza	-11.2259
▁recherche	-11.2259
▁jambe	-11.2259
▁wake	-11.2259
▁immediately	-11.2259
▁sentence	-11.2259
hu	-11.226
attraper	-11.226
▁glasses	-11.2265
▁lying	-11.2266
▁supporter	-11.2267
▁law	-11.2268
017	-11.227
▁share	-11.2275
▁impatient	-11.2285
205	-11.2292
▁#19617	-11.2294
904	-11.2297
▁#20265	-11.2305
▁Reste	-11.231
▁guitare	-11.2313
▁chats	-11.2314
▁#658	-11.2317
▁#1343	-11.232
▁allés	-11.2324
ches	-11.2329
592	-11.2343
ois	-11.2344
▁#3178	-11.2345
▁#5390	-11.2345
▁#3221	-11.2345
▁#425	-11.2345
▁across	-11.2345
▁tempête	-11.2345
▁douleur	-11.2345
▁voix	-11.2346
▁connu	-11.2346
liv	-11.2348
▁prudente	-11.2356
▁dressed	-11.2359
▁dise	-11.2365
▁waited	-11.2371
▁pieds	-11.2372
▁déco	-11.2381
ink	-11.2393
952	-11.2402
▁garçons	-11.2404
352	-11.2404
▁importante	-11.2406
▁#729	-11.2417
▁#23183	-11.2418
▁Europe	-11.242
oudriez	-11.2433
▁#2951	-11.2433
▁#3256	-11.2433
▁rhume	-11.2433
▁stylo	-11.2433
▁vécu	-11.2433
▁storm	-11.2433
▁également	-11.2433
▁golf	-11.2434
▁zoo	-11.2434
▁sou	-11.2435
▁apple	-11.2437
▁note	-11.2438
▁seriez	-11.2441
Ed	-11.2444
▁#18866	-11.2446
▁asking	-11.2466
kur	-11.2473
206	-11.2476
▁vend	-11.2485
▁Toute	-11.2488
839	-11.2488
▁chante	-11.2513
430	-11.2514
767	-11.2517
olivier	-11.2522
▁#2428	-11.2522
▁#441	-11.2522
▁#6820	-11.2522
▁afford	-11.2522
▁suivre	-11.2522
▁gauche	-11.2522
▁worse	-11.2523
▁#25449	-11.2524
▁fruit	-11.2526
▁#6821	-11.2531
▁continuer	-11.2537
433	-11.2539
▁pictures	-11.2552
▁#221850	-11.2563
▁#1364	-11.2566
▁#1332	-11.2576
▁promis	-11.2582
▁#1304	-11.2584
▁#20124	-11.2585
613	-11.2589
199	-11.259
200	-11.2594
▁#769	-11.2606
▁wall	-11.2611
▁#2955	-11.2611
▁#612	-11.2611
▁conscience	-11.2611
▁montagne	-11.2611
▁phrase	-11.2611
▁sympa	-11.2611
751	-11.2612
père	-11.2617
▁conseillé	-11.2617
▁page	-11.2617
▁carefully	-11.2619
▁cancer	-11.2621
▁mariée	-11.2623
hiver	-11.2624
▁#18863	-11.2626
▁port	-11.2642
▁#36363	-11.2649
410	-11.266
▁dérange	-11.2661
▁#22454	-11.2663
▁clés	-11.2663
▁#1335	-11.2666
hier	-11.2672
735	-11.2673
lin	-11.2673
ker	-11.2674
899	-11.2678
▁suggest	-11.2682
▁préparé	-11.2686
▁article	-11.2687
▁Mo	-11.269
toile	-11.269
▁succeed	-11.2695
▁#37314	-11.2695
▁#714	-11.2696
▁#502	-11.2701
▁driving	-11.2701
▁involved	-11.2701
▁tranquille	-11.2701
▁urgent	-11.2701
▁mur	-11.2704
pf	-11.2706
▁marier	-11.2708
898	-11.2711
298	-11.2713
259	-11.2715
▁savons	-11.2727
864	-11.2732
▁harder	-11.2732
▁Fi	-11.2733
▁agreed	-11.2733
▁dessus	-11.2738
▁intéressé	-11.2739
nne	-11.2754
tan	-11.276
▁vieil	-11.2771
379	-11.2779
▁post	-11.2784
▁#3730	-11.2792
▁special	-11.2792
dedans	-11.2792
▁inside	-11.2792
ignorais	-11.2793
▁tel	-11.2793
▁loud	-11.2794
▁étudiant	-11.2795
▁cute	-11.2796
▁#1989	-11.28
▁whatever	-11.2806
▁#3151	-11.2807
▁bleu	-11.2811
210	-11.2815
▁#2447	-11.282
▁#1302	-11.2825
▁given	-11.2834
▁#23882	-11.2835
788	-11.2847
▁#2954	-11.2848
ali	-11.2854
▁regarda	-11.2865
▁#2443	-11.2869
▁poli	-11.2871
▁parfait	-11.2876
▁aviez	-11.2877
▁top	-11.2879
▁repos	-11.288
▁honnête	-11.288
christian	-11.2884
▁quelconque	-11.2884
▁viande	-11.2884
though	-11.2884
▁choose	-11.2885
▁couru	-11.2897
isé	-11.2903
484	-11.2904
▁autorisé	-11.2907
arrêt	-11.2923
▁#377	-11.2929
▁#1276	-11.293
649	-11.296
▁satisfied	-11.2964
iconque	-11.2969
389	-11.2971
▁#7811	-11.2973
158	-11.2973
Rasp	-11.2976
▁#1811	-11.2976
▁Sorry	-11.2976
▁animaux	-11.2976
▁shop	-11.2976
▁sucre	-11.2976
oreille	-11.2976
▁honte	-11.2977
310	-11.2978
▁douche	-11.2981
▁discussion	-11.2982
▁seras	-11.2983
mor	-11.2986
ord	-11.2987
▁#18875	-11.2989
▁réfléchir	-11.2989
nique	-11.299
▁soirée	-11.2994
400	-11.3
▁#23152	-11.3012
▁groupe	-11.3015
▁calm	-11.3019
▁#18493	-11.3027
▁#1723	-11.3031
▁allait	-11.3035
318	-11.3037
▁mail	-11.304
▁prom	-11.3041
▁#37318	-11.3048
vec	-11.3056
▁#8031	-11.3062
▁#2594	-11.307
▁#3413	-11.307
▁Kyoto	-11.307
▁bottle	-11.307
▁remain	-11.307
▁valise	-11.307
▁weird	-11.307
▁sé	-11.307
rauli	-11.3071
220	-11.3071
486	-11.3072
▁mienne	-11.3075
rin	-11.3079
▁nombre	-11.3082
▁#18874	-11.3082
▁#2249	-11.3083
West	-11.3083
▁sentiment	-11.3084
boy	-11.3087
▁surviv	-11.309
▁raining	-11.3092
▁#808	-11.3092
219	-11.31
▁fired	-11.3108
line	-11.3108
185	-11.3114
▁rang	-11.3115
▁#1352	-11.3116
▁#22740	-11.3118
▁#19508	-11.3118
kil	-11.3127
▁mérite	-11.3128
ither	-11.3133
▁#1327	-11.3142
Ga	-11.3148
▁Ser	-11.3152
▁Per	-11.3152
165	-11.3155
▁#3150	-11.3164
Amérique	-11.3164
▁#1813	-11.3164
▁discours	-11.3164
▁médicament	-11.3164
▁souvenir	-11.3164
▁traffic	-11.3164
▁suivi	-11.3164
▁jolie	-11.3164
obez	-11.3165
attend	-11.3165
▁congé	-11.3167
sol	-11.3171
▁facilement	-11.3171
▁#2401	-11.3177
▁marié	-11.3177
208	-11.318
▁loi	-11.3184
▁#9038	-11.3188
962	-11.319
908	-11.3209
306	-11.321
▁#19518	-11.3218
▁compter	-11.3231
▁propres	-11.3232
▁Cha	-11.3236
cat	-11.3237
▁choisi	-11.324
202	-11.3241
▁couch	-11.3259
entretenir	-11.3259
▁#1280	-11.3259
▁#3655	-11.3259
▁easily	-11.3259
▁slept	-11.3259
▁throw	-11.3259
▁Venez	-11.3259
▁women	-11.3259
▁précis	-11.3259
109	-11.3262
▁travaillé	-11.3264
▁laissez	-11.327
ément	-11.3278
▁#1331	-11.3281
ash	-11.3285
▁#1275	-11.3286
▁retourner	-11.3288
▁#20954	-11.3294
▁bonnes	-11.3301
AN	-11.3307
▁movies	-11.3314
▁reconnaissant	-11.3318
▁#10963	-11.3318
809	-11.3319
203	-11.3323
455	-11.3323
500	-11.3325
104	-11.3325
785	-11.3344
employ	-11.3348
689	-11.3351
128	-11.3353
▁gagne	-11.3355
▁ferme	-11.3355
▁blanc	-11.3355
intéresse	-11.3355
▁#607	-11.3355
▁#718	-11.3355
▁control	-11.3355
▁twice	-11.3355
▁lève	-11.3356
▁trompe	-11.3356
▁Turn	-11.3357
▁clair	-11.3357
ufs	-11.3359
▁Restez	-11.3361
▁carry	-11.3362
756	-11.3363
▁eye	-11.3369
▁excuse	-11.3374
▁cousin	-11.3376
▁bons	-11.3378
▁lequel	-11.3378
056	-11.3382
taste	-11.3393
▁#2389	-11.3395
▁#20345	-11.3395
625	-11.3395
isu	-11.3399
▁erreurs	-11.3405
189	-11.3421
▁passed	-11.3423
may	-11.3425
▁America	-11.3438
▁decide	-11.3441
620	-11.3447
Thom	-11.3452
elgra	-11.3453
▁#3131	-11.3453
▁#3154	-11.3453
▁#3172	-11.3453
▁#727	-11.3453
▁conversation	-11.3453
▁moitié	-11.3453
astasi	-11.3453
orange	-11.3453
▁Bien	-11.3453
atastr	-11.3458
926	-11.346
643	-11.3462
rain	-11.3471
student	-11.3475
▁#22028	-11.3478
183	-11.3479
▁#4533	-11.3479
bout	-11.3481
arlon	-11.3481
teur	-11.3483
▁fallu	-11.3485
▁staying	-11.3491
▁#2534	-11.3492
▁blessée	-11.3503
▁aimes	-11.3505
▁appeler	-11.3506
▁souri	-11.3549
▁#1284	-11.3551
▁#1818	-11.3551
▁#2649	-11.3551
▁earlier	-11.3551
▁empty	-11.3551
▁mensonge	-11.3551
▁spécial	-11.3551
▁television	-11.3551
▁permis	-11.3551
▁emprunter	-11.3551
▁held	-11.3551
▁liar	-11.3551
importance	-11.3551
▁visage	-11.3553
Fre	-11.3555
▁nage	-11.3562
213	-11.3564
▁treat	-11.3567
▁#41983	-11.3569
301	-11.3571
▁pick	-11.3575
411	-11.3575
▁Va	-11.3586
186	-11.3586
▁#23802	-11.3597
▁#37320	-11.3619
238	-11.3648
▁#1281	-11.365
▁#1283	-11.365
▁#2444	-11.365
▁#3185	-11.365
▁docteur	-11.365
▁vivent	-11.365
aimait	-11.365
▁montré	-11.3651
ennemi	-11.3651
▁apprécié	-11.3652
▁impressionné	-11.3654
▁Regardez	-11.3657
▁kissed	-11.366
▁#18860	-11.3662
▁ahead	-11.3667
▁#1820	-11.3669
ack	-11.3674
215	-11.3676
oublier	-11.3683
▁played	-11.3684
▁Isn	-11.3685
546	-11.3691
▁#37302	-11.3694
870	-11.3694
ana	-11.3704
exc	-11.3717
zm	-11.372
682	-11.3721
lar	-11.3722
▁#20429	-11.3723
▁#552	-11.3724
▁ravi	-11.3725
129	-11.3729
▁#1438	-11.375
▁#2958	-11.375
▁#3417	-11.375
▁anywhere	-11.375
▁célèbre	-11.375
▁effrayé	-11.375
▁sandwich	-11.375
▁vouliez	-11.375
▁stuff	-11.375
▁vingt	-11.375
▁Viens	-11.375
▁Even	-11.3751
166	-11.3752
▁ciel	-11.3752
911	-11.3753
fc	-11.3755
▁#77860	-11.3756
▁couteau	-11.3757
▁dents	-11.3758
fleur	-11.3761
▁avions	-11.3766
was	-11.3768
313	-11.3768
▁#22033	-11.3779
▁#6463	-11.3779
292	-11.379
alon	-11.3808
▁lake	-11.3811
909	-11.3815
▁soucie	-11.3817
▁support	-11.3817
▁semaines	-11.3824
▁#1287	-11.383
ari	-11.3835
▁flu	-11.384
accus	-11.3841
▁vide	-11.3848
▁Suis	-11.3849
▁peint	-11.385
▁#512	-11.3851
▁German	-11.3851
▁bouteille	-11.3851
▁pleut	-11.3851
▁Voudra	-11.3851
▁utile	-11.3851
▁boat	-11.3851
board	-11.3852
rvus	-11.3854
249	-11.3855
hunt	-11.386
▁inconvénient	-11.3861
auff	-11.3866
480	-11.3871
▁refused	-11.3872
▁driver	-11.3874
can	-11.3875
▁#1396	-11.3881
▁likely	-11.3885
923	-11.39
▁cruel	-11.3903
593	-11.3905
883	-11.3906
▁#1334	-11.3907
affaire	-11.3907
▁blue	-11.3908
▁#20258	-11.3909
▁#22449	-11.391
▁meat	-11.392
mettez	-11.392
▁ouverte	-11.3924
▁occasion	-11.3925
▁#37312	-11.3926
arriver	-11.3927
▁#2427	-11.3933
901	-11.3935
▁boys	-11.3938
▁enter	-11.394
▁#1389	-11.3946
▁concern	-11.3947
▁arrivée	-11.3947
spect	-11.3951
887	-11.3952
▁fri	-11.3953
▁#23227	-11.3953
▁#2956	-11.3953
▁#3171	-11.3953
▁#711	-11.3953
▁Maintenant	-11.3953
▁reconnu	-11.3953
▁herself	-11.3953
▁marry	-11.3953
▁wonderful	-11.3954
▁décider	-11.3954
▁billet	-11.3954
▁#3310	-11.3958
▁followed	-11.3962
▁#1291	-11.3962
cori	-11.3962
▁direction	-11.3963
aji	-11.3963
tats	-11.3964
ancien	-11.3965
▁manqué	-11.3965
▁#21113	-11.3966
▁#18872	-11.3967
▁#737	-11.3973
▁tombée	-11.3975
▁#749	-11.3982
178	-11.3983
587	-11.3986
tom	-11.3986
589	-11.3988
▁plat	-11.4002
▁#3226	-11.4003
221	-11.4011
297	-11.4015
423	-11.4019
▁balle	-11.402
AP	-11.4039
019	-11.4039
Cin	-11.4041
aéroport	-11.4056
▁#1288	-11.4056
▁#1290	-11.4056
▁#2590	-11.4056
▁#610	-11.4056
▁copine	-11.4056
▁heavy	-11.4056
▁injured	-11.4056
▁élevé	-11.4056
▁horrible	-11.4056
université	-11.4056
▁grave	-11.4057
135	-11.4058
▁rapide	-11.4058
▁drank	-11.4062
▁laughed	-11.4063
arme	-11.4069
▁#18873	-11.407
900	-11.4077
▁fly	-11.4085
106	-11.4088
110	-11.4088
allais	-11.4089
▁lied	-11.4094
▁#22407	-11.4095
▁personal	-11.4096
▁trou	-11.4101
606	-11.4109
▁younger	-11.4112
805	-11.4115
561	-11.4128
913	-11.4139
▁vienne	-11.4143
lée	-11.4144
▁#19364	-11.4151
576	-11.4159
▁fool	-11.416
▁Every	-11.416
kitten	-11.416
▁#3202	-11.416
▁#503	-11.416
▁Should	-11.416
▁hundred	-11.416
▁maladie	-11.416
▁population	-11.416
▁prévu	-11.416
▁beginning	-11.416
▁document	-11.416
▁also	-11.416
avenir	-11.416
▁imagination	-11.4161
▁remercier	-11.4162
▁Hier	-11.4163
▁quitté	-11.4163
▁levé	-11.4164
▁#2031	-11.4165
envers	-11.4166
▁#629	-11.4167
▁#1848	-11.4174
▁choisir	-11.418
111	-11.4184
595	-11.4187
lant	-11.4187
107	-11.4192
▁file	-11.4195
▁ligne	-11.4198
▁#15534	-11.4199
781	-11.42
▁forme	-11.4201
▁#1446	-11.4207
007	-11.4209
192	-11.421
▁#1315	-11.4211
295	-11.4214
Lan	-11.4224
▁#22406	-11.4225
198	-11.4226
mère	-11.4227
877	-11.4228
▁exam	-11.4233
701	-11.4233
▁#19365	-11.4233
▁forte	-11.4245
▁tire	-11.4255
▁#3657	-11.4265
▁cravate	-11.4265
▁nettoyer	-11.4265
▁rarement	-11.4266
▁signe	-11.4274
▁lock	-11.4274
177	-11.4274
▁fishing	-11.4276
▁cooking	-11.4276
▁#64559	-11.4278
▁singing	-11.4281
▁#3374	-11.4282
949	-11.4284
813	-11.4285
▁#24068	-11.4291
▁#22034	-11.4294
421	-11.4297
▁semblez	-11.4298
▁#36362	-11.43
▁rends	-11.4307
▁devin	-11.4311
ged	-11.4315
▁#14622	-11.4315
597	-11.4335
▁neuf	-11.4341
▁ouvrir	-11.4347
▁déçu	-11.4354
gle	-11.4359
▁souhait	-11.4361
▁ferait	-11.4368
▁#698	-11.4372
inquiète	-11.4372
▁chouette	-11.4372
▁plenty	-11.4372
▁société	-11.4372
▁fiche	-11.4374
▁winter	-11.4374
▁bain	-11.4375
▁failed	-11.4376
▁painted	-11.4377
396	-11.438
▁#77909	-11.4389
130	-11.4392
▁#64612	-11.4393
yja	-11.4393
▁#16904	-11.4394
Dan	-11.4396
▁#18606	-11.4398
082	-11.4399
905	-11.4405
▁sept	-11.441
und	-11.4416
▁#35940	-11.4417
tait	-11.4429
153	-11.4442
▁animals	-11.4444
ouvre	-11.4445
liu	-11.4447
765	-11.4469
▁depend	-11.4471
▁#24516	-11.4479
▁#1298	-11.4479
▁#3204	-11.4479
▁#444	-11.4479
▁frappé	-11.4479
extérieur	-11.4479
obtenir	-11.4479
▁#3024	-11.4479
▁airport	-11.4479
▁holiday	-11.4479
▁voice	-11.4479
▁remind	-11.4479
▁crains	-11.4479
Unis	-11.448
498	-11.448
▁vérifier	-11.448
▁weeks	-11.4481
▁Quoi	-11.4481
▁attrapé	-11.4483
483	-11.4483
422	-11.4491
▁traite	-11.4492
277	-11.4494
▁#48788	-11.4498
▁moved	-11.45
embrasser	-11.4503
▁pair	-11.4509
079	-11.4515
ymna	-11.4515
302	-11.4518
▁#5707	-11.4522
677	-11.4536
▁ideas	-11.454
▁avaient	-11.4541
759	-11.4542
▁#795	-11.4542
237	-11.4552
▁#1390	-11.4559
324	-11.4561
▁Vo	-11.4564
▁#2318	-11.4565
▁tend	-11.4566
ary	-11.4566
▁amusé	-11.4581
▁#1449	-11.4588
▁possède	-11.4588
▁suitcase	-11.4588
▁welcome	-11.4588
ennuis	-11.4588
▁Dieu	-11.4588
▁built	-11.4588
▁accused	-11.4588
▁2:30	-11.4588
▁#1326	-11.4589
▁mention	-11.4591
▁confide	-11.4592
▁certainement	-11.4593
675	-11.4594
▁laughing	-11.4595
▁sight	-11.4599
454	-11.4601
▁habite	-11.4605
▁bouton	-11.4611
▁seemed	-11.4612
▁pomme	-11.4613
▁walking	-11.4613
▁#1370	-11.4617
190	-11.462
▁wind	-11.4622
▁sourire	-11.4626
▁#13930	-11.4637
262	-11.4639
621	-11.4641
aurait	-11.4655
auto	-11.4658
AO	-11.4681
590	-11.4683
874	-11.4685
849	-11.4685
▁#2402	-11.4694
▁protect	-11.4697
▁million	-11.4698
▁incroyable	-11.4698
▁#3023	-11.4698
▁#3252	-11.4698
▁#3996	-11.4698
▁privé	-11.4698
▁impressed	-11.4698
▁sky	-11.4698
▁Leave	-11.4698
▁battre	-11.4698
▁Wait	-11.4702
441	-11.4704
▁#77697	-11.4709
▁#18861	-11.4712
▁#18876	-11.4713
▁#59391	-11.4713
▁#63220	-11.4715
▁#77939	-11.4717
▁cuisiner	-11.472
▁#22026	-11.473
▁#1392	-11.4731
▁rencontre	-11.4739
191	-11.4739
308	-11.4753
▁#1445	-11.4754
▁#19509	-11.4756
▁For	-11.4767
▁press	-11.4771
776	-11.4777
gée	-11.4784
752	-11.4802
▁product	-11.4803
▁#3271	-11.4804
907	-11.4805
585	-11.4805
841	-11.4806
▁#2567	-11.4809
▁#768	-11.4809
▁earth	-11.4809
▁fière	-11.4809
▁#78627	-11.4809
▁partout	-11.4811
244	-11.4812
▁cré	-11.4813
ryan	-11.4813
608	-11.4816
ecom	-11.4821
693	-11.4822
282	-11.4824
▁#55350	-11.4824
▁bath	-11.4825
apprendre	-11.4834
▁#22032	-11.484
▁paie	-11.4841
rought	-11.4842
▁puni	-11.487
879	-11.4874
659	-11.4875
171	-11.4878
▁#2821	-11.488
871	-11.4884
▁pens	-11.489
▁soul	-11.4892
577	-11.4894
▁#17239	-11.4894
▁comprend	-11.49
▁smile	-11.4909
▁direct	-11.4915
771	-11.4915
777	-11.4916
▁#6812	-11.4921
▁conduis	-11.4921
▁#1812	-11.4921
▁gérer	-11.4921
▁knife	-11.4921
▁obtenu	-11.4921
▁jealous	-11.4921
▁glace	-11.4921
▁sitting	-11.4922
▁répondu	-11.4923
▁ruin	-11.4926
▁seriously	-11.4927
▁convinced	-11.493
390	-11.4932
▁#21116	-11.4937
912	-11.4938
▁allow	-11.494
▁#69475	-11.4943
243	-11.4944
▁step	-11.4944
aurai	-11.4945
778	-11.4953
▁#8471	-11.4954
921	-11.4958
ami	-11.4961
▁#4775	-11.4962
703	-11.4972
656	-11.4977
624	-11.4977
▁#9536	-11.4986
▁Ha	-11.499
semblait	-11.5004
708	-11.5005
▁#3736	-11.5013
▁dépend	-11.503
▁#1295	-11.5035
▁découvert	-11.5035
▁explication	-11.5035
▁faveur	-11.5035
▁grandfather	-11.5035
▁pratique	-11.5035
▁project	-11.5035
▁promenade	-11.5035
▁revenir	-11.5035
▁étudié	-11.5035
▁vivant	-11.5035
▁planning	-11.5035
▁gotten	-11.5035
oiseau	-11.5036
▁eight	-11.5037
▁aware	-11.5037
▁préparer	-11.5037
860	-11.5038
▁dort	-11.5039
gré	-11.5044
790	-11.5044
174	-11.5047
guis	-11.5048
▁stolen	-11.5049
▁Has	-11.5051
▁duty	-11.5053
▁disent	-11.5053
▁mille	-11.5055
▁poche	-11.5064
▁paint	-11.5064
991	-11.5072
▁#18909	-11.5074
387	-11.5091
▁#64024	-11.51
002	-11.5102
014	-11.5102
▁#8114	-11.5105
▁#1307	-11.5106
▁leaves	-11.5107
▁#1398	-11.5108
403	-11.5117
▁dispos	-11.5123
▁manquer	-11.5134
till	-11.5143
▁apples	-11.5146
779	-11.5146
▁#1333	-11.5148
ième	-11.5149
▁#3152	-11.515
▁#2957	-11.515
▁#3199	-11.515
▁garage	-11.515
▁studied	-11.515
▁eggs	-11.515
▁feed	-11.515
▁Essaie	-11.515
▁forgive	-11.515
▁portait	-11.5152
▁#79829	-11.5153
▁portes	-11.5156
▁dég	-11.5161
▁voisin	-11.5162
▁#64560	-11.5164
▁pont	-11.5165
ole	-11.517
▁viendrai	-11.517
▁seven	-11.5173
097	-11.5176
534	-11.5179
▁#2565	-11.5185
▁#375	-11.5186
▁#4530	-11.5196
091	-11.5199
584	-11.5203
▁vendre	-11.5203
sak	-11.5204
229	-11.5211
▁voie	-11.5211
286	-11.5213
299	-11.5214
ock	-11.5215
▁#22886	-11.5216
▁feelings	-11.5216
786	-11.5224
▁mentir	-11.5225
591	-11.523
ked	-11.5232
204	-11.5233
797	-11.5237
▁#3211	-11.5244
568	-11.5244
entend	-11.5244
194	-11.5246
bor	-11.5247
418	-11.5248
081	-11.5249
069	-11.5254
▁imagin	-11.5256
explosion	-11.5266
▁#1407	-11.5266
▁#1814	-11.5266
▁#2934	-11.5266
▁ashamed	-11.5266
▁musée	-11.5266
▁pause	-11.5267
▁frais	-11.5268
▁#1372	-11.5269
▁conseilla	-11.5269
▁#1357	-11.5269
▁hang	-11.5273
395	-11.5275
▁polite	-11.5277
008	-11.5278
lui	-11.528
▁#6847	-11.5285
▁eut	-11.5289
260	-11.5322
cked	-11.5324
▁puissi	-11.5327
▁#3308	-11.5344
pje	-11.5347
old	-11.535
▁#5347	-11.5351
▁button	-11.5366
▁réveillé	-11.5375
▁#5899	-11.5376
▁return	-11.5378
▁Al	-11.5383
▁commun	-11.5383
▁power	-11.5383
▁#1294	-11.5384
▁#1819	-11.5384
▁#3096	-11.5384
▁#3251	-11.5384
▁#3419	-11.5384
▁#524	-11.5384
▁réellement	-11.5384
▁taught	-11.5384
▁membre	-11.5384
▁silence	-11.5384
▁cool	-11.5384
▁crayon	-11.5384
▁#74489	-11.5385
284	-11.5389
▁#77858	-11.5393
412	-11.5394
▁cats	-11.5396
▁ordered	-11.5398
▁#18862	-11.5399
▁#5288	-11.54
▁#37306	-11.5402
▁cap	-11.5403
▁#69359	-11.5406
992	-11.5407
▁taller	-11.5409
686	-11.5411
507	-11.5412
041	-11.5412
096	-11.5427
▁plain	-11.5429
ah	-11.5431
▁#19702	-11.5432
▁debout	-11.5435
▁#2490	-11.5437
éré	-11.5438
ped	-11.5448
▁#1600	-11.5449
382	-11.5449
891	-11.5457
698	-11.5459
499	-11.5471
159	-11.5472
980	-11.5474
ombre	-11.5478
entrée	-11.549
175	-11.549
▁trees	-11.5493
▁meant	-11.5497
579	-11.5502
▁crowd	-11.5503
▁#2510	-11.5503
▁#2561	-11.5503
▁#523	-11.5503
▁#6810	-11.5503
▁#6822	-11.5503
▁Aujourd	-11.5503
▁cigarette	-11.5503
▁cinéma	-11.5503
▁connaissance	-11.5503
▁corps	-11.5503
▁habituellement	-11.5503
▁impliqué	-11.5503
▁kitchen	-11.5503
▁museum	-11.5503
▁sugar	-11.5503
▁sweet	-11.5503
▁pencil	-11.5503
▁canapé	-11.5503
▁blood	-11.5503
▁trans	-11.5503
Chri	-11.5504
▁stone	-11.5504
▁sérieusement	-11.5504
▁detail	-11.5505
▁warned	-11.5508
cookies	-11.551
▁#60831	-11.5512
▁#5657	-11.5512
279	-11.5518
▁pot	-11.552
▁#46817	-11.5522
▁courses	-11.5522
707	-11.5526
▁#66374	-11.5527
665	-11.5528
619	-11.5531
▁#22915	-11.5533
▁sauf	-11.5535
179	-11.5538
▁#24167	-11.5549
▁pull	-11.5552
▁soup	-11.5561
▁#1279	-11.5561
▁#19507	-11.5562
065	-11.5564
▁#3123	-11.5564
690	-11.5565
236	-11.5568
802	-11.5573
▁#2475	-11.5576
▁#623	-11.5584
▁base	-11.5591
▁months	-11.5596
▁Mak	-11.5603
444	-11.5606
▁divorce	-11.5611
▁#1325	-11.5616
▁#701	-11.5618
▁slow	-11.5621
▁bridge	-11.5623
▁embrassé	-11.5623
▁extreme	-11.5623
▁gouvernement	-11.5623
▁politique	-11.5623
▁popular	-11.5623
▁preuve	-11.5623
▁président	-11.5623
▁#3140	-11.5623
▁stick	-11.5623
▁lentement	-11.5623
▁invitation	-11.5623
▁chaleur	-11.5624
▁murder	-11.5624
948	-11.5625
840	-11.5625
▁arrested	-11.5625
148	-11.5626
▁juge	-11.5628
▁#63679	-11.563
599	-11.563
▁fortune	-11.5632
▁#73529	-11.5633
120	-11.5637
vl	-11.5639
▁saved	-11.5642
▁#48417	-11.5644
▁#69369	-11.5649
utus	-11.565
▁#53774	-11.5653
801	-11.5653
▁sec	-11.5654
▁wash	-11.5655
excuser	-11.5657
▁#4860	-11.5661
214	-11.5669
▁sel	-11.5673
739	-11.5677
ative	-11.5679
col	-11.5681
imeriez	-11.5683
▁tickets	-11.569
602	-11.5693
▁#2505	-11.5696
557	-11.5701
▁#20139	-11.5709
664	-11.571
207	-11.571
▁plays	-11.5712
316	-11.5721
▁#730	-11.5726
▁parles	-11.5728
ited	-11.573
▁#24974	-11.5732
489	-11.5732
▁complain	-11.5733
▁prêts	-11.5735
▁#23774	-11.5736
▁#53895	-11.5741
▁appear	-11.5745
▁déménag	-11.5745
▁#18427	-11.5745
▁#2888	-11.5745
▁#3170	-11.5745
▁#3494	-11.5745
▁#763	-11.5745
▁Canadian	-11.5745
▁Jackson	-11.5745
▁explanation	-11.5745
▁extrême	-11.5745
▁particular	-11.5745
▁produire	-11.5745
▁wedding	-11.5745
▁écouté	-11.5745
▁woke	-11.5745
▁morceau	-11.5745
▁client	-11.5745
▁rude	-11.5745
▁#79710	-11.5745
▁awake	-11.5746
▁fear	-11.5746
▁voleur	-11.5746
▁#79670	-11.5748
▁manager	-11.575
726	-11.5751
arrière	-11.5752
443	-11.5752
▁#77859	-11.5753
▁#2415	-11.5753
088	-11.5755
001	-11.5757
▁#69267	-11.5758
▁terminer	-11.5759
▁#53591	-11.5767
▁San	-11.5769
▁sooner	-11.577
683	-11.5778
▁prendrai	-11.578
▁#2509	-11.579
▁#23733	-11.5793
viennent	-11.5803
▁#1803	-11.5804
339	-11.5812
377	-11.5817
▁stole	-11.5818
iens	-11.5819
810	-11.5835
875	-11.5843
250	-11.5845
▁#6219	-11.5854
▁escape	-11.5857
▁rencontrés	-11.5857
▁#37296	-11.5857
▁#23341	-11.5858
▁intéressante	-11.5859
▁#2912	-11.5863
167	-11.5867
instituteur	-11.5869
mygdale	-11.5869
▁#2321	-11.5869
▁#2488	-11.5869
▁#3418	-11.5869
▁government	-11.5869
▁blind	-11.5869
▁lonely	-11.5869
▁translate	-11.5869
▁lycée	-11.5869
▁finger	-11.5869
▁joindre	-11.5869
▁corde	-11.5869
115	-11.5869
▁posé	-11.5871
▁laver	-11.5878
335	-11.5879
▁moyens	-11.588
▁#65562	-11.5883
approche	-11.5884
226	-11.5885
▁#62859	-11.5886
461	-11.5886
317	-11.5886
336	-11.5888
▁dirai	-11.589
▁#77711	-11.5895
tir	-11.5896
▁#3658	-11.5896
▁#55793	-11.5896
▁#45512	-11.5897
▁#654	-11.5898
003	-11.59
abandonner	-11.5905
▁#56604	-11.5906
397	-11.5908
▁#22267	-11.5909
▁sleepy	-11.591
▁sortie	-11.591
▁#19336	-11.5913
▁rule	-11.5913
692	-11.5917
essaye	-11.5917
▁#16548	-11.592
825	-11.5922
▁#1303	-11.5925
Alg	-11.5927
▁#22762	-11.5928
▁#8010	-11.5929
▁efforts	-11.5933
nger	-11.5934
▁#22887	-11.5936
296	-11.5952
▁langues	-11.5953
▁iron	-11.5957
▁cheap	-11.5958
▁#20126	-11.5965
▁player	-11.5968
344	-11.5973
572	-11.5983
▁#23976	-11.5987
équipe	-11.5988
▁rencontrée	-11.5989
humeur	-11.5994
▁#1285	-11.5994
▁#1404	-11.5994
▁#6845	-11.5994
▁obvious	-11.5994
▁vôtre	-11.5994
▁#3222	-11.5994
▁combat	-11.5994
▁promets	-11.5994
giving	-11.5994
▁parvenu	-11.5994
▁doigt	-11.5994
▁Call	-11.5995
▁#1319	-11.5995
étudier	-11.5995
▁Most	-11.5995
▁parfaitement	-11.5996
▁fallait	-11.5996
▁Di	-11.5997
▁proposal	-11.6002
▁#2538	-11.6003
▁fil	-11.6004
▁mili	-11.6004
▁#35915	-11.6007
▁faster	-11.6009
han	-11.601
915	-11.6013
▁learning	-11.6017
881	-11.6019
▁God	-11.603
▁animal	-11.6035
▁#18956	-11.6036
▁#23981	-11.6036
▁vote	-11.6037
▁#18910	-11.6038
628	-11.604
▁#14521	-11.6042
▁perte	-11.6042
▁tient	-11.6043
▁#20361	-11.6044
848	-11.6045
▁#3734	-11.605
▁#3309	-11.6051
▁#2470	-11.6063
▁remis	-11.6072
736	-11.6075
▁préférée	-11.609
▁disposé	-11.6094
▁#46540	-11.6103
▁#24081	-11.6109
▁#7465	-11.6109
436	-11.6112
arrivera	-11.6113
ley	-11.6115
▁#1289	-11.612
▁#1810	-11.612
▁#2712	-11.612
▁#2835	-11.612
▁#2928	-11.612
▁#767	-11.612
▁Today	-11.612
▁folle	-11.612
▁nobody	-11.612
▁schedule	-11.612
▁#6823	-11.612
▁#719	-11.612
▁disparu	-11.612
▁history	-11.612
▁profond	-11.612
▁stood	-11.612
▁boring	-11.6121
étage	-11.6123
▁Hol	-11.6126
afin	-11.6127
560	-11.6127
▁#13356	-11.6127
▁#72905	-11.6128
▁#4134	-11.6128
laming	-11.6131
oubliez	-11.6131
▁#73528	-11.6132
▁#77698	-11.6132
▁#2018	-11.6135
assurer	-11.6136
▁allergi	-11.6137
▁destin	-11.6138
▁seuls	-11.614
989	-11.6148
ethod	-11.6149
497	-11.6153
477	-11.6158
▁#1355	-11.6162
▁#16358	-11.6165
▁Pas	-11.6171
▁#4741	-11.6187
▁heat	-11.6188
▁visiter	-11.6194
▁#1397	-11.6202
▁sub	-11.6206
épouser	-11.6207
▁#3311	-11.6211
▁#1015	-11.6237
127	-11.6238
way	-11.6239
▁fruits	-11.6243
tribu	-11.6243
▁#3228	-11.6248
▁private	-11.6248
▁#18429	-11.6248
▁#2940	-11.6248
▁#3001	-11.6248
▁#3162	-11.6248
▁#3203	-11.6248
▁convaincre	-11.6248
▁received	-11.6248
▁major	-11.6248
▁bread	-11.6248
▁enemy	-11.6248
▁nerveux	-11.6249
▁actuellement	-11.6249
champ	-11.625
Shado	-11.6251
▁deep	-11.6252
453	-11.6252
▁vase	-11.6253
798	-11.6254
▁acting	-11.626
933	-11.6261
▁#22475	-11.6261
406	-11.6274
906	-11.6278
▁#587	-11.628
▁cab	-11.6283
▁#4545	-11.6292
▁mise	-11.6293
876	-11.6294
▁#1320	-11.6294
▁#7561	-11.6295
▁#11406	-11.6305
▁#22759	-11.6308
▁#2222	-11.6311
▁#68774	-11.6313
▁grands	-11.6314
039	-11.6314
889	-11.6317
803	-11.6317
796	-11.6327
▁#6324	-11.6335
▁nine	-11.6335
▁foi	-11.6338
▁heureuses	-11.6351
715	-11.6359
▁regrette	-11.6363
▁fair	-11.6368
▁#2765	-11.6378
▁#6849	-11.6378
▁marrant	-11.6378
▁rempli	-11.6378
▁agréable	-11.6378
▁suicide	-11.6378
▁#78626	-11.6379
645	-11.6379
▁suddenly	-11.638
▁boisson	-11.638
970	-11.6384
miche	-11.6386
▁#72904	-11.6387
▁considered	-11.6389
▁Tes	-11.6389
▁#1338	-11.639
995	-11.6391
▁expecting	-11.6392
▁drop	-11.6394
▁missing	-11.6396
239	-11.6404
▁#66310	-11.6405
402	-11.6406
ckle	-11.6406
▁#13689	-11.6409
▁#53673	-11.641
401	-11.6415
▁#1800	-11.6416
▁#22272	-11.6419
▁#1816	-11.6426
141	-11.6426
▁buying	-11.6429
▁#25656	-11.6436
▁#6818	-11.6439
▁#58009	-11.6442
ulo	-11.6445
anne	-11.6452
102	-11.6452
trouv	-11.6453
▁intéressée	-11.6455
288	-11.6474
▁#23822	-11.6474
697	-11.6476
155	-11.6477
113	-11.6479
wei	-11.648
▁appel	-11.6484
334	-11.6489
ouvrir	-11.6491
utilise	-11.6498
▁pleine	-11.6499
▁#58037	-11.65
345	-11.6507
▁#3327	-11.651
▁custom	-11.651
▁sauvé	-11.651
▁#1282	-11.651
▁#2884	-11.651
▁#3183	-11.651
▁October	-11.651
▁account	-11.651
▁apartment	-11.651
▁body	-11.651
▁préférerais	-11.651
▁refusé	-11.651
▁véritable	-11.651
▁adult	-11.651
▁fresh	-11.651
▁common	-11.651
▁copie	-11.6511
▁Essayez	-11.6512
▁pensait	-11.6512
▁slowly	-11.6512
▁tienne	-11.6514
449	-11.6516
▁Vas	-11.6519
▁Pouvons	-11.652
▁#63078	-11.6521
▁member	-11.6522
▁#54413	-11.6526
▁changement	-11.6527
▁#18865	-11.6528
▁map	-11.6533
▁#75530	-11.6534
▁warn	-11.6537
▁exact	-11.6539
ities	-11.6542
occasion	-11.6546
594	-11.6547
▁servi	-11.6548
▁#22914	-11.6549
176	-11.6551
▁#63241	-11.6552
▁#19389	-11.6552
▁truc	-11.6553
▁#57268	-11.6554
▁calling	-11.656
567	-11.6563
▁#23895	-11.6566
▁#58031	-11.6566
▁essaya	-11.658
▁fume	-11.6589
▁#965	-11.6592
▁#24082	-11.6593
▁#1324	-11.6596
moto	-11.6609
▁#742	-11.6617
▁#2092	-11.6618
▁subject	-11.6626
071	-11.6632
▁Garde	-11.6638
289	-11.6641
▁mom	-11.6642
artin	-11.6643
david	-11.6643
▁#2761	-11.6643
▁#2883	-11.6643
▁#664	-11.6643
▁#6886	-11.6643
appartient	-11.6643
▁#2762	-11.6643
▁#5395	-11.6643
▁London	-11.6643
▁feet	-11.6643
▁guilty	-11.6643
▁inquiet	-11.6643
▁patience	-11.6643
▁possibilité	-11.6643
▁silencieux	-11.6643
▁étrangère	-11.6643
▁grew	-11.6643
▁teeth	-11.6643
▁Thomas	-11.6644
lapin	-11.6644
▁faux	-11.6645
▁salt	-11.6645
▁hide	-11.6646
▁flat	-11.6647
▁pêcher	-11.6647
▁chef	-11.6648
▁verrouill	-11.6648
lni	-11.665
▁#70608	-11.6651
▁seront	-11.6652
▁#63960	-11.6653
▁profit	-11.6654
▁accepté	-11.6655
▁#23300	-11.6656
▁tiré	-11.6657
iping	-11.6657
▁helping	-11.6659
▁idées	-11.6661
▁#58165	-11.6661
▁pourriez	-11.6663
hap	-11.6668
▁#77933	-11.6668
▁extra	-11.667
ize	-11.6671
issue	-11.6679
▁#19119	-11.6681
▁#8472	-11.6686
neb	-11.6689
▁#58029	-11.6689
▁#66686	-11.6691
799	-11.6693
457	-11.6694
lose	-11.6696
▁#19776	-11.67
▁#35916	-11.6704
▁#1321	-11.6709
▁#6716	-11.671
▁#22182	-11.6712
694	-11.6713
596	-11.6714
▁#8165	-11.6722
▁#20409	-11.6743
▁#6400	-11.675
▁continu	-11.6757
hen	-11.6758
▁#18485	-11.676
▁#4014	-11.676
ib	-11.6762
▁#1363	-11.6765
▁grandi	-11.6771
▁comporte	-11.6776
▁hid	-11.6777
▁#2529	-11.6778
▁#2887	-11.6778
▁#3137	-11.6778
▁#1807	-11.6778
▁#2445	-11.6778
▁#2448	-11.6778
▁#2662	-11.6778
▁#6815	-11.6778
▁Londres	-11.6778
▁appointment	-11.6778
▁church	-11.6778
▁ensuite	-11.6778
▁mouth	-11.6778
▁printemps	-11.6778
▁remarqué	-11.6778
▁prenez	-11.6778
▁amoureuse	-11.6778
▁expert	-11.6778
▁worst	-11.6779
▁#78625	-11.6781
112	-11.6786
steve	-11.6791
▁voler	-11.6792
▁wise	-11.6796
▁native	-11.6797
▁#64741	-11.6802
▁gentille	-11.6805
oir	-11.6807
467	-11.6811
▁watched	-11.6813
▁#22289	-11.6816
▁#16387	-11.682
pit	-11.6821
▁chocolat	-11.6822
▁prévois	-11.6823
▁#36361	-11.6823
▁#20696	-11.6825
▁languages	-11.6833
▁#19705	-11.6835
blue	-11.6838
▁neighbors	-11.6841
▁trouva	-11.6841
well	-11.6842
▁visited	-11.6845
bec	-11.6855
▁#20266	-11.6856
951	-11.6861
▁#7545	-11.6869
979	-11.6874
509	-11.6876
▁#734	-11.6878
▁#37297	-11.6883
Mag	-11.6884
▁#53664	-11.6891
▁#68412	-11.6894
▁réfléchi	-11.6896
▁#2289	-11.6897
▁#1274	-11.6898
▁cross	-11.6912
▁prove	-11.6914
843	-11.6914
▁#2764	-11.6915
▁#3250	-11.6915
▁#70502	-11.6915
▁climat	-11.6915
église	-11.6915
▁#3157	-11.6915
▁conscient	-11.6915
▁paraît	-11.6915
▁pocket	-11.6915
▁straight	-11.6915
▁adopt	-11.6915
wann	-11.6915
▁permettre	-11.6916
▁tears	-11.6916
▁brave	-11.6917
▁card	-11.6919
▁savent	-11.692
dave	-11.6921
▁seules	-11.6925
▁faisais	-11.6927
▁#75494	-11.6929
▁serons	-11.6929
101	-11.6933
▁singer	-11.6942
▁#55998	-11.6946
▁#13687	-11.6947
▁boit	-11.6947
▁#1388	-11.6949
▁#5389	-11.6952
359	-11.6955
▁#22271	-11.6955
528	-11.6963
▁#18936	-11.6966
Never	-11.6967
▁#16580	-11.6968
▁trahi	-11.6973
ôt	-11.6976
arrange	-11.6978
▁#1846	-11.6982
724	-11.6983
137	-11.6989
work	-11.6989
▁#24023	-11.6992
▁fail	-11.6997
▁trucs	-11.7004
▁#7889	-11.7006
▁#2589	-11.7013
▁#13372	-11.7025
▁pressé	-11.7029
rave	-11.7042
▁#4534	-11.7042
▁paire	-11.7042
▁#1277	-11.7043
▁relax	-11.7048
475	-11.7053
▁#2511	-11.7054
▁#2991	-11.7054
▁#3133	-11.7054
▁#3177	-11.7054
▁#3385	-11.7054
▁#6814	-11.7054
▁Demande	-11.7054
▁Hurry	-11.7054
▁faible	-11.7054
▁policier	-11.7054
▁protéger	-11.7054
▁paix	-11.7055
▁généralement	-11.7055
▁flight	-11.7055
▁memory	-11.7058
▁tight	-11.7062
▁locked	-11.7062
iie	-11.7066
▁cried	-11.7066
▁#65561	-11.7067
▁#61537	-11.7069
▁stranger	-11.7069
668	-11.707
▁fourni	-11.7071
▁#5458	-11.7071
506	-11.7074
▁#5158	-11.7077
▁#37291	-11.7079
607	-11.7081
473	-11.7087
▁#46934	-11.7091
▁revi	-11.7093
▁#4686	-11.71
amis	-11.7103
▁#19612	-11.7107
987	-11.7107
ory	-11.7112
elf	-11.7112
▁#35993	-11.7114
▁#1399	-11.7116
arrête	-11.7118
tally	-11.712
▁japonaise	-11.712
▁#9545	-11.713
476	-11.7132
▁#1834	-11.7135
514	-11.7142
▁cache	-11.7142
▁#23900	-11.7145
▁#1323	-11.7147
▁#20129	-11.7148
▁chocolate	-11.715
▁#13359	-11.7172
▁notice	-11.7183
▁pleased	-11.7184
▁#2482	-11.7188
▁#2240	-11.7191
▁#1517	-11.7195
▁#3223	-11.7195
▁absolument	-11.7195
▁apporté	-11.7195
▁peace	-11.7195
▁record	-11.7195
▁suggère	-11.7195
▁Life	-11.7195
▁prévenu	-11.7195
▁joué	-11.7195
éteindre	-11.7195
▁Help	-11.7195
▁green	-11.7195
▁attack	-11.7195
▁costume	-11.7196
▁bored	-11.7196
▁#75442	-11.7196
▁#78628	-11.7197
▁obligée	-11.7198
▁cloche	-11.72
▁coupable	-11.7203
▁prendra	-11.7204
▁#2422	-11.7213
▁#63853	-11.7214
▁standing	-11.7214
▁#56034	-11.7215
▁nouveaux	-11.7219
▁#75446	-11.7222
▁mour	-11.7223
▁#57527	-11.7227
408	-11.7228
gh	-11.7228
▁#784	-11.7231
▁#75213	-11.7235
▁#2417	-11.7235
163	-11.7239
564	-11.724
▁#3218	-11.7241
rop	-11.7245
▁#4868	-11.7252
▁result	-11.7252
▁entré	-11.7253
▁règle	-11.7253
▁band	-11.7256
▁#22481	-11.7257
▁dorm	-11.7258
▁#4579	-11.7268
▁#9544	-11.727
▁#67368	-11.7271
▁#2247	-11.7272
▁#18444	-11.7277
oire	-11.7282
538	-11.7283
773	-11.7287
ized	-11.729
▁#620	-11.7291
▁devenue	-11.7292
information	-11.7295
168	-11.7301
549	-11.7304
▁#7074	-11.7306
▁#24228	-11.732
▁#24159	-11.7328
▁fis	-11.7332
▁occupés	-11.7337
▁mode	-11.7337
▁#3255	-11.7338
▁chinois	-11.7338
▁volunteer	-11.7338
Gulliver	-11.7338
acquisition	-11.7338
▁#1802	-11.7338
▁#3144	-11.7338
▁#7281	-11.7338
▁compagnie	-11.7338
▁dommage	-11.7338
▁rumeur	-11.7338
▁dirty	-11.7338
▁bike	-11.7338
▁causé	-11.7338
speed	-11.7339
▁spring	-11.7339
▁Mets	-11.7339
▁#3214	-11.7339
▁élèves	-11.7342
▁#70638	-11.7348
▁vraie	-11.7349
▁mood	-11.7351
▁#18868	-11.7358
▁listened	-11.7358
114	-11.7361
▁gas	-11.7362
▁#46922	-11.7363
admire	-11.7364
▁#57063	-11.7367
▁#69370	-11.7367
▁#42353	-11.7369
▁#18204	-11.7374
▁#22917	-11.738
odi	-11.7385
▁probable	-11.7387
▁#968	-11.7391
▁fermée	-11.7394
▁lors	-11.7395
▁prise	-11.7398
▁huit	-11.7399
▁#20339	-11.74
154	-11.74
▁droite	-11.7415
356	-11.7422
▁#810	-11.7429
▁#11814	-11.7431
▁prêtes	-11.7435
▁#20146	-11.7445
Australie	-11.745
434	-11.7459
▁beat	-11.746
▁#13139	-11.747
▁contrôle	-11.7476
wood	-11.7477
▁reach	-11.7481
▁#3396	-11.7481
▁#1436	-11.7483
▁#1500	-11.7483
▁#2327	-11.7483
▁#2491	-11.7483
▁#2929	-11.7483
▁#2974	-11.7483
▁#2977	-11.7483
▁#3153	-11.7483
▁#6828	-11.7483
▁#6840	-11.7483
▁Somebody	-11.7483
▁absolutely	-11.7483
▁candidat	-11.7483
▁gunshot	-11.7483
▁responsible	-11.7483
▁scream	-11.7483
▁soccer	-11.7483
▁thousand	-11.7483
▁excited	-11.7483
▁enfin	-11.7483
▁larmes	-11.7483
▁lazy	-11.7484
▁lourd	-11.7484
▁Chinese	-11.7484
▁correctement	-11.7484
▁#61861	-11.7488
offre	-11.7489
105	-11.7489
▁#21115	-11.749
▁pourrions	-11.7491
▁earn	-11.7493
▁null	-11.7494
▁following	-11.7494
eva	-11.7503
▁raconter	-11.7505
896	-11.7505
080	-11.7507
▁fed	-11.7507
▁#24273	-11.7511
▁#2584	-11.7516
▁#75296	-11.7527
▁#36398	-11.7528
▁#23025	-11.7533
▁séjourn	-11.7536
▁march	-11.7537
▁#68633	-11.7538
▁#20994	-11.7539
▁vain	-11.7549
▁#1454	-11.755
▁#23959	-11.7552
▁#54189	-11.7553
▁#45429	-11.7558
▁#24679	-11.7559
cris	-11.7559
▁arriv	-11.7562
385	-11.7569
amb	-11.7578
▁voisins	-11.7591
appréci	-11.7591
ofu	-11.7597
by	-11.7598
aimer	-11.7599
achète	-11.7599
gab	-11.7604
▁#56619	-11.7605
uf	-11.7607
appellerai	-11.7609
oney	-11.7616
451	-11.7619
attrap	-11.7621
▁#24105	-11.7628
386	-11.763
▁#2628	-11.763
▁éveillé	-11.763
incendie	-11.763
▁#18459	-11.763
▁#3414	-11.763
▁#4450	-11.763
▁#6801	-11.763
▁opportunity	-11.763
▁remettre	-11.763
▁résolu	-11.763
▁échoué	-11.763
▁dingue	-11.763
▁stuck	-11.763
▁refusa	-11.763
▁peinture	-11.763
▁menteur	-11.7631
▁croit	-11.7633
▁sombre	-11.7638
▁single	-11.7641
▁#60670	-11.7641
▁rope	-11.7642
oivent	-11.7644
▁viré	-11.7646
▁#75445	-11.7651
▁meaning	-11.7657
▁spoken	-11.7657
▁#75531	-11.7657
ward	-11.7658
▁#21593	-11.7663
▁#22288	-11.767
orc	-11.7674
ctl	-11.7678
▁#2173	-11.7678
▁flo	-11.7678
▁#21076	-11.768
rions	-11.7684
▁aiment	-11.7689
404	-11.769
▁#7853	-11.7692
▁#11144	-11.7693
mka	-11.7693
▁demandai	-11.7697
▁#53719	-11.7699
▁#22888	-11.7707
fully	-11.7709
▁fasses	-11.771
▁touche	-11.7715
▁avoid	-11.7719
enseigner	-11.773
▁#2915	-11.7732
▁celles	-11.774
▁#1071	-11.7762
vin	-11.7763
ulti	-11.7767
temps	-11.7771
▁Excuse	-11.7774
▁mignon	-11.7776
▁commis	-11.7779
entraîne	-11.7779
ground	-11.7779
époque	-11.7779
▁#1647	-11.7779
▁#2927	-11.7779
▁#3230	-11.7779
▁#4887	-11.7779
▁#6966	-11.7779
▁dépense	-11.7779
▁familiar	-11.7779
▁particulier	-11.7779
▁rejoin	-11.7779
▁retraite	-11.7779
▁Alors	-11.7779
Hikar	-11.7779
▁rumor	-11.7779
assistance	-11.7779
Salut	-11.7779
▁devraient	-11.7779
▁caché	-11.7779
▁bomb	-11.7779
▁#2334	-11.778
▁devait	-11.778
épaule	-11.778
▁panne	-11.7781
▁Read	-11.7782
▁Eh	-11.7783
image	-11.7783
▁sûres	-11.7784
tab	-11.7787
▁soient	-11.7787
▁chanceux	-11.7791
andis	-11.7795
▁insist	-11.7796
▁#57241	-11.7796
▁explained	-11.7798
▁suggestion	-11.78
▁#70799	-11.7803
▁#25048	-11.7803
▁#13562	-11.7809
▁starting	-11.7809
▁#16642	-11.7815
▁cancel	-11.7815
792	-11.7828
637	-11.7828
▁#1440	-11.7831
▁#16581	-11.7833
▁monté	-11.7842
▁#11404	-11.7844
▁#56552	-11.7845
▁#11121	-11.7845
▁#19542	-11.7859
▁#1838	-11.7864
▁#13301	-11.7867
▁#4958	-11.7868
▁#4578	-11.787
chant	-11.7876
▁#20151	-11.788
▁#24174	-11.7888
▁#20460	-11.7889
occ	-11.7897
▁nourri	-11.7899
▁#13563	-11.7903
511	-11.7907
▁nose	-11.7913
osto	-11.7925
▁push	-11.7927
▁president	-11.7929
urgence	-11.7931
▁#2602	-11.7931
▁#2766	-11.7931
▁#2881	-11.7931
▁#3135	-11.7931
▁Children	-11.7931
▁comfortable	-11.7931
▁décédé	-11.7931
▁interrupt	-11.7931
▁license	-11.7931
▁légumes	-11.7931
addition	-11.7931
▁#642	-11.7931
▁salaire	-11.7931
▁annoy	-11.7931
▁départ	-11.7931
eddie	-11.7931
▁entièrement	-11.7932
abord	-11.7932
▁wallet	-11.7932
▁speaker	-11.7933
▁pique	-11.7936
little	-11.7937
▁connaisse	-11.7937
▁hiding	-11.7937
ria	-11.7938
▁#71415	-11.794
▁moon	-11.7941
▁#62103	-11.7944
▁saoul	-11.7945
examine	-11.7949
fort	-11.795
▁#63808	-11.795
▁arbres	-11.795
▁#46819	-11.7953
▁couper	-11.7957
337	-11.7958
▁#53532	-11.7961
▁#46787	-11.7963
125	-11.7964
▁#45507	-11.7964
▁#19897	-11.7969
367	-11.7969
▁tenu	-11.797
▁#24106	-11.7976
aiderai	-11.7978
▁tourist	-11.7982
▁chaude	-11.7984
471	-11.7986
▁#16508	-11.7988
▁programme	-11.7991
▁#11122	-11.7998
▁#4774	-11.7998
▁#11123	-11.7999
▁#4542	-11.8002
▁sain	-11.8003
103	-11.8003
▁roses	-11.8006
▁#3735	-11.8007
▁#20260	-11.8009
▁#4862	-11.8026
▁See	-11.8034
364	-11.8051
▁#24650	-11.8056
epuis	-11.8072
▁préfér	-11.8073
▁#1409	-11.8075
échec	-11.8078
▁#618	-11.8079
▁#2473	-11.8082
énergie	-11.8084
▁#2580	-11.8084
▁#2582	-11.8084
▁#2720	-11.8084
▁#3130	-11.8084
▁#3138	-11.8084
▁#675	-11.8084
▁Apporte	-11.8084
▁curious	-11.8084
▁déprimé	-11.8084
▁mémoire	-11.8084
▁photograph	-11.8084
▁purpose	-11.8084
▁responsabilité	-11.8084
▁#2586	-11.8085
▁#3227	-11.8085
▁#6829	-11.8085
▁critique	-11.8085
▁Voilà	-11.8085
▁miracle	-11.8085
▁harm	-11.8085
▁stamp	-11.8085
▁prétend	-11.8085
▁bedroom	-11.8085
▁merci	-11.8085
yans	-11.8086
▁trouvait	-11.8086
▁valeur	-11.8086
▁shocked	-11.8087
▁#72671	-11.8089
▁complaining	-11.8091
▁washing	-11.8091
▁Faisons	-11.8092
▁#5803	-11.8093
▁picked	-11.8094
▁employé	-11.8096
▁chess	-11.8097
▁returned	-11.8098
▁growing	-11.81
▁depressed	-11.8101
emploi	-11.8102
▁#1628	-11.8102
▁riz	-11.8104
▁#21112	-11.8105
▁hasard	-11.8106
▁#18387	-11.8108
▁#3729	-11.8116
▁porté	-11.8118
▁#18430	-11.8122
▁#24318	-11.8125
épi	-11.8126
▁#22477	-11.8134
bel	-11.8135
isgr	-11.8136
▁#2210	-11.8136
uvre	-11.8156
▁#19513	-11.8165
▁#14095	-11.8167
▁aura	-11.8168
▁#3245	-11.817
▁Ré	-11.8171
▁#1879	-11.8172
▁rentre	-11.8173
▁intend	-11.8183
amuse	-11.8183
▁#20113	-11.8188
▁contract	-11.8192
▁jeter	-11.8193
ood	-11.8194
quick	-11.82
▁#13707	-11.8203
amuser	-11.8205
▁survive	-11.8207
501	-11.8219
ified	-11.822
▁pack	-11.8225
▁convince	-11.8229
▁#3217	-11.8236
▁#1297	-11.8241
▁#1503	-11.8241
▁#1642	-11.8241
▁#2601	-11.8241
▁#2742	-11.8241
▁#2809	-11.8241
▁#2879	-11.8241
▁#2886	-11.8241
▁#2944	-11.8241
▁#3007	-11.8241
▁#3160	-11.8241
▁#3257	-11.8241
▁#5865	-11.8241
▁#761	-11.8241
▁génial	-11.8241
▁science	-11.8241
▁shoot	-11.8241
▁siège	-11.8241
▁#2512	-11.8241
▁choqué	-11.8241
▁psych	-11.8241
▁suivant	-11.8241
▁plaindre	-11.8241
serpi	-11.8241
▁position	-11.8241
▁entire	-11.8242
375	-11.825
▁certainly	-11.8253
▁accusé	-11.8255
351	-11.8258
▁healthy	-11.8259
▁#55035	-11.8259
▁oui	-11.8261
▁imaginé	-11.8263
▁#46554	-11.8266
▁#47774	-11.8272
▁#25447	-11.8276
▁#57504	-11.8277
▁believed	-11.8277
uro	-11.8282
▁#22038	-11.8283
326	-11.829
743	-11.8292
▁#2497	-11.8295
▁couvert	-11.8297
▁#19613	-11.8297
▁#20301	-11.8307
erreur	-11.8313
apporter	-11.832
▁#2426	-11.8323
▁#47798	-11.833
▁#13391	-11.8335
▁sembl	-11.8335
▁#64655	-11.8343
▁#6865	-11.8344
mong	-11.8346
▁#20114	-11.8365
▁#22495	-11.8365
▁tombe	-11.8368
▁goal	-11.8368
enseign	-11.8375
▁construit	-11.8379
▁sentiments	-11.8384
▁#3333	-11.8388
keir	-11.8388
▁considér	-11.8389
raf	-11.839
▁nature	-11.8397
▁nouvel	-11.8397
▁sérieuse	-11.8397
aîné	-11.8399
exercice	-11.8399
▁#1296	-11.8399
▁#18426	-11.8399
▁#2577	-11.8399
▁#2654	-11.8399
▁#2711	-11.8399
▁#3139	-11.8399
▁#3335	-11.8399
▁earthquake	-11.8399
▁energy	-11.8399
▁lecture	-11.8399
▁#2522	-11.8399
▁#4880	-11.8399
▁engine	-11.8399
▁poison	-11.8399
calcul	-11.84
trousers	-11.84
▁cream	-11.84
▁clever	-11.84
▁lift	-11.8401
▁#2474	-11.8402
▁sauver	-11.8406
▁tenté	-11.8407
▁#5311	-11.8407
▁bouche	-11.8407
▁matinée	-11.8411
▁#23972	-11.8413
▁noticed	-11.8413
▁#53291	-11.8416
▁#48569	-11.8427
▁scar	-11.8431
▁laisserai	-11.8431
▁#997	-11.8432
▁#7564	-11.8433
▁#20315	-11.8433
▁#53697	-11.8436
▁#1386	-11.8439
▁#4666	-11.844
ordre	-11.8441
▁#16385	-11.845
▁#58007	-11.8451
kee	-11.8451
▁#18957	-11.8457
▁#48648	-11.8465
▁timide	-11.8466
▁joueur	-11.8469
361	-11.8469
▁donnerai	-11.8469
▁#20338	-11.8469
▁#1408	-11.8471
▁haute	-11.8472
▁#75214	-11.8472
▁#53245	-11.8473
▁#7928	-11.8474
▁#57026	-11.8477
entendi	-11.8486
▁#36400	-11.8487
▁#36405	-11.8492
▁#22405	-11.8497
▁rêves	-11.8504
▁#8985	-11.8509
▁unique	-11.8513
▁chansons	-11.8515
▁#64630	-11.8527
ida	-11.8528
▁brush	-11.8529
gged	-11.8532
▁rencontr	-11.8542
aires	-11.8544
▁Mange	-11.8547
▁Passe	-11.8548
▁burn	-11.8555
▁#5487	-11.8557
alcool	-11.8561
▁#14410	-11.8561
▁#2400	-11.8561
▁#2721	-11.8561
▁#2870	-11.8561
▁#3008	-11.8561
▁#3060	-11.8561
▁#3387	-11.8561
▁#3415	-11.8561
▁#597	-11.8561
▁China	-11.8561
▁further	-11.8561
▁incapable	-11.8561
▁natural	-11.8561
▁timbre	-11.8561
▁Sometimes	-11.8561
▁humain	-11.8561
▁bagages	-11.8561
▁bigger	-11.8561
▁raté	-11.8563
▁#2403	-11.8563
▁jouai	-11.8564
▁#78624	-11.8564
▁vitesse	-11.8564
▁invités	-11.8564
▁confused	-11.8565
▁cheer	-11.8566
▁reached	-11.8568
▁#70288	-11.8571
▁#48691	-11.8576
▁#23318	-11.8578
▁#2362	-11.8586
▁#24300	-11.8589
▁#45503	-11.8589
▁#50635	-11.859
▁commande	-11.8591
▁#46259	-11.8592
▁#69399	-11.8594
▁#4865	-11.8595
ouvrit	-11.8598
▁foule	-11.86
▁#5411	-11.8606
▁#24264	-11.8607
▁#75215	-11.8607
▁gri	-11.8616
habite	-11.8617
anniversaire	-11.8618
▁answered	-11.8619
▁#18500	-11.8619
endroit	-11.862
aucun	-11.8621
▁#18501	-11.8623
▁#35987	-11.8624
cing	-11.8627
▁#20336	-11.8632
ship	-11.8633
▁mistaken	-11.8635
car	-11.8636
▁effort	-11.8639
▁#48054	-11.864
liver	-11.8644
▁#54525	-11.8647
▁#19515	-11.8647
▁#19510	-11.8648
▁#1074	-11.8654
▁#36483	-11.8657
523	-11.8661
▁#2508	-11.8661
▁cartes	-11.8663
▁#2430	-11.8665
▁#18431	-11.8665
▁tien	-11.8671
Sha	-11.8673
▁#5963	-11.8674
▁rendrai	-11.8675
▁#2097	-11.8696
▁#8008	-11.8697
▁répond	-11.8701
▁#10259	-11.8703
▁demand	-11.8703
▁fan	-11.8708
▁Com	-11.8717
▁jump	-11.8719
▁#13579	-11.872
▁manage	-11.8722
▁culture	-11.8725
envoyer	-11.8725
▁#2409	-11.8725
▁#2552	-11.8725
▁#2807	-11.8725
▁#3088	-11.8725
▁#3322	-11.8725
▁#614	-11.8725
▁#6813	-11.8725
▁#6846	-11.8725
▁Osaka	-11.8725
▁Voyez	-11.8725
▁compliqué	-11.8725
▁dépourvu	-11.8725
▁passport	-11.8725
▁théorie	-11.8725
▁understood	-11.8725
▁vegetables	-11.8725
Fabi	-11.8725
▁obey	-11.8725
▁shy	-11.8725
▁instructions	-11.8725
▁countries	-11.8725
▁voudriez	-11.8725
soyons	-11.8726
▁facture	-11.8726
▁débarrasser	-11.8726
▁commandé	-11.8727
▁portable	-11.8727
▁abandonné	-11.8728
joy	-11.8731
▁#63656	-11.8735
▁entered	-11.8735
▁fighting	-11.8735
▁#77857	-11.8737
▁text	-11.8738
▁#6743	-11.874
▁add	-11.8743
▁#56162	-11.8745
▁pose	-11.8748
▁terme	-11.875
▁idiote	-11.876
▁#36001	-11.8764
▁#53755	-11.8764
▁limite	-11.8766
▁#36711	-11.8769
▁#4839	-11.8773
▁espér	-11.878
▁#22476	-11.8781
▁#23907	-11.8783
▁plaisante	-11.879
▁#2163	-11.8793
avaient	-11.8797
▁résultat	-11.8806
▁résultats	-11.8809
▁#22143	-11.8812
▁#20264	-11.8814
▁#2391	-11.8818
▁#9548	-11.8821
▁#2201	-11.8821
▁#19514	-11.8827
▁#1836	-11.8836
▁#75248	-11.8838
▁dirais	-11.8839
▁#3543	-11.8848
▁web	-11.8858
exception	-11.8868
▁discut	-11.8881
▁#5791	-11.8881
▁interest	-11.8884
▁Chine	-11.889
john	-11.8891
▁#14029	-11.8891
▁#3006	-11.8891
▁#3525	-11.8891
▁#967	-11.8891
▁Attends	-11.8891
▁dirige	-11.8891
▁exhausted	-11.8891
▁navire	-11.8891
▁portefeuille	-11.8891
▁progress	-11.8891
▁trompé	-11.8891
▁basket	-11.8891
▁passeport	-11.8891
▁camion	-11.8891
▁delighted	-11.8891
▁bicyclette	-11.8891
▁dropped	-11.8891
▁silent	-11.8892
▁bright	-11.8892
▁poem	-11.8893
handed	-11.8894
▁#2433	-11.8894
▁lady	-11.8894
▁salad	-11.8894
▁moqu	-11.8899
▁laissa	-11.89
▁vendu	-11.8902
▁restée	-11.8902
▁contribu	-11.8903
▁huge	-11.8905
▁#2502	-11.8908
▁#35737	-11.8912
▁#24472	-11.8919
▁#64001	-11.8926
▁#21594	-11.8928
kat	-11.8932
▁#53696	-11.8933
▁#17242	-11.8935
▁#22083	-11.8936
▁#63809	-11.8938
▁#56269	-11.8941
arly	-11.8946
▁#18945	-11.895
▁Du	-11.8951
▁#15540	-11.8954
▁#11405	-11.8962
▁#22640	-11.8967
ayons	-11.8967
▁#1920	-11.8974
▁#22705	-11.8976
▁#20250	-11.8976
▁bare	-11.8976
neige	-11.8979
▁#14627	-11.8979
Keep	-11.898
▁#19511	-11.8981
pro	-11.8986
▁carrie	-11.8987
▁#9547	-11.8992
▁parie	-11.9006
▁shoulder	-11.901
▁#20461	-11.9016
▁#25969	-11.9031
▁mariés	-11.9045
▁climb	-11.9055
▁collect	-11.906
capacité	-11.9061
▁#1601	-11.9061
▁#18428	-11.9061
▁#2627	-11.9061
▁#2667	-11.9061
▁découvrir	-11.9061
▁faudra	-11.9061
▁graduate	-11.9061
▁piscine	-11.9061
▁seldom	-11.9061
▁#3093	-11.9061
▁#3337	-11.9061
▁gratuit	-11.9061
▁require	-11.9061
▁instead	-11.9061
▁prisonnier	-11.9061
étude	-11.9061
▁dessert	-11.9061
▁#4654	-11.9061
▁collection	-11.9061
▁devais	-11.9061
▁poule	-11.9062
▁#3303	-11.9062
▁gold	-11.9062
vaisselle	-11.9064
▁naive	-11.9064
▁marre	-11.9071
▁concerned	-11.9071
▁défi	-11.9072
▁weak	-11.9074
▁express	-11.908
▁ailles	-11.9081
▁#2370	-11.9087
▁#70678	-11.9089
_75)	-11.9091
▁prof	-11.9093
place	-11.9095
▁Parle	-11.9096
▁#53645	-11.9102
▁#46538	-11.9102
▁#13675	-11.9105
▁#22036	-11.9108
▁#48753	-11.9109
▁#75216	-11.9113
▁#3378	-11.9117
▁#33862	-11.912
▁#23151	-11.9127
▁retire	-11.9128
▁#4274	-11.9128
▁#16523	-11.9129
▁#19777	-11.913
▁#24477	-11.9139
▁#2371	-11.915
▁rose	-11.915
erie	-11.9152
▁barbe	-11.9158
▁#23700	-11.916
▁soupe	-11.9161
▁results	-11.9163
▁#22455	-11.9165
▁sage	-11.9179
▁invitée	-11.9181
▁#2424	-11.9202
nese	-11.9207
▁tirer	-11.921
▁#3886	-11.921
coute	-11.9231
▁général	-11.9233
▁recover	-11.9233
▁#1519	-11.9233
▁#1602	-11.9233
▁#2520	-11.9233
▁#2611	-11.9233
▁#2792	-11.9233
▁#2904	-11.9233
▁#3070	-11.9233
▁#3120	-11.9233
▁#3166	-11.9233
▁#3241	-11.9233
▁#3410	-11.9233
▁#53964	-11.9233
▁Attendez	-11.9233
▁Saturday	-11.9233
▁Sortez	-11.9233
▁covered	-11.9233
▁exercise	-11.9233
▁improve	-11.9233
▁poème	-11.9233
▁refaire	-11.9233
▁volontaire	-11.9233
▁éteint	-11.9233
éclair	-11.9233
▁#2931	-11.9233
▁album	-11.9233
▁reproche	-11.9233
▁chicken	-11.9233
▁connaissait	-11.9233
▁forgotten	-11.9233
▁attractive	-11.9233
▁confirm	-11.9233
▁assume	-11.9233
rtro	-11.9234
▁attentivement	-11.9234
▁brisé	-11.9234
▁#3216	-11.9234
monnaie	-11.9235
▁sweater	-11.9236
▁rendit	-11.9239
▁échecs	-11.9241
▁sports	-11.9241
▁truck	-11.9241
504	-11.9241
bart	-11.9242
▁samedi	-11.9242
alec	-11.9243
▁#70639	-11.9245
wma	-11.9248
▁planté	-11.9248
▁escaped	-11.925
▁parlent	-11.9257
▁prépar	-11.926
▁#25043	-11.926
▁sert	-11.9261
▁#24680	-11.9268
▁#25042	-11.927
▁supporte	-11.9273
▁#22084	-11.9274
▁#22086	-11.9278
▁tourne	-11.9279
▁#1017	-11.9281
▁#17743	-11.9285
▁#3824	-11.9286
▁#56620	-11.9289
▁hearing	-11.9294
▁#20371	-11.9303
▁#47756	-11.9304
▁#4765	-11.9308
▁#6468	-11.9317
▁#6696	-11.9323
▁#22186	-11.9323
▁#78026	-11.9324
▁#10996	-11.9325
▁tiens	-11.9329
▁#36425	-11.9333
▁exist	-11.9335
▁group	-11.9335
▁pensent	-11.9343
rist	-11.9344
▁#3219	-11.9345
ô	-11.9351
▁#1998	-11.9353
eka	-11.9361
▁#20130	-11.9364
426	-11.9367
▁présente	-11.9373
▁admir	-11.9378
▁#24207	-11.9382
▁#24019	-11.9385
▁#78533	-11.9392
most	-11.9399
vons	-11.9402
▁Ferme	-11.9404
▁total	-11.9404
univers	-11.9408
▁#3302	-11.9409
ouvrage	-11.9409
▁#2975	-11.9409
▁#3058	-11.9409
▁#966	-11.9409
▁Dispose	-11.9409
▁States	-11.9409
▁Watch	-11.9409
▁américain	-11.9409
▁habillé	-11.9409
▁incredibl	-11.9409
▁pool	-11.9409
▁unhappy	-11.9409
allemand	-11.9409
▁#2619	-11.9409
▁#3324	-11.9409
▁#3523	-11.9409
▁principal	-11.9409
▁répéter	-11.9409
▁strict	-11.9409
▁university	-11.9409
Peel	-11.9409
▁excité	-11.9409
▁double	-11.9409
▁spot	-11.9409
▁modern	-11.9409
▁prize	-11.9409
▁chacun	-11.9409
▁veste	-11.941
▁drug	-11.9411
▁difficultés	-11.9412
▁Montre	-11.9414
▁#69149	-11.9422
obil	-11.9422
▁view	-11.9425
▁king	-11.9426
▁#57832	-11.9426
▁#60003	-11.9427
▁#4779	-11.9437
▁#48554	-11.9437
▁#12761	-11.9438
▁#48553	-11.9439
chez	-11.944
▁2013	-11.9442
raw	-11.9444
▁#2248	-11.9446
▁#4743	-11.9454
▁#3502	-11.9463
▁island	-11.9464
ifié	-11.9465
▁#56205	-11.9465
▁épouse	-11.9466
▁#22484	-11.9467
▁#16175	-11.9468
▁#18908	-11.9468
▁#18977	-11.947
▁#15223	-11.9474
▁#2458	-11.9476
▁#18522	-11.9477
▁#14766	-11.9482
▁#46260	-11.9483
▁essay	-11.9483
▁#14606	-11.9494
▁différentes	-11.9501
▁branch	-11.9502
▁#21639	-11.951
▁#36421	-11.9512
▁#36424	-11.9515
▁hug	-11.9527
▁#64687	-11.9528
▁casse	-11.9531
▁#3402	-11.9537
▁#37298	-11.9542
▁#1877	-11.9547
▁courte	-11.955
itter	-11.9552
▁#6465	-11.9562
▁#24073	-11.9563
endant	-11.9573
▁#726	-11.9576
gone	-11.9583
▁précipit	-11.9587
alternative	-11.9587
▁#2587	-11.9587
▁#2804	-11.9587
▁#2946	-11.9587
▁#2965	-11.9587
▁#3128	-11.9587
▁#3143	-11.9587
▁#3158	-11.9587
▁#3412	-11.9587
▁circulation	-11.9587
▁embarrassed	-11.9587
▁punished	-11.9587
▁robbe	-11.9587
▁supplémentaire	-11.9587
▁twenty	-11.9587
▁headache	-11.9587
▁kidding	-11.9587
▁tough	-11.9587
▁local	-11.9587
▁weapon	-11.9587
▁#25970	-11.9588
▁état	-11.9589
▁venez	-11.9589
▁Ouvre	-11.9589
▁mignonne	-11.9591
▁#72672	-11.9593
▁#70677	-11.9599
▁#68435	-11.9599
▁tastes	-11.96
▁managed	-11.9601
▁#46789	-11.9602
▁#59434	-11.9606
▁#19363	-11.9608
▁#63635	-11.9611
▁#46961	-11.9617
▁#48357	-11.9619
▁Oh	-11.9621
▁ended	-11.9621
emporter	-11.9624
▁#46537	-11.9632
▁pousser	-11.9633
▁cacher	-11.9634
▁assise	-11.9635
▁#12595	-11.9636
▁#11905	-11.9639
▁#17410	-11.9642
▁options	-11.9642
▁#16111	-11.9645
▁#19390	-11.9646
▁#15821	-11.9647
▁#20618	-11.965
▁#23901	-11.9654
▁#11407	-11.9656
▁#24357	-11.9657
▁veuilles	-11.9663
▁désire	-11.9674
▁artist	-11.9688
▁#2142	-11.9697
▁plainte	-11.9702
▁cards	-11.9703
▁#6525	-11.9708
▁#22414	-11.9713
nok	-11.972
▁limit	-11.9725
▁#13728	-11.9729
▁#2195	-11.9731
▁retourne	-11.9733
▁coupé	-11.9737
connect	-11.9768
▁attempt	-11.9769
▁disturb	-11.9769
▁recommend	-11.9769
Christian	-11.9769
hanghai	-11.9769
indiquer	-11.9769
▁#1817	-11.9769
▁#2517	-11.9769
▁#2524	-11.9769
▁#2592	-11.9769
▁#2900	-11.9769
▁#2920	-11.9769
▁#2932	-11.9769
▁#2972	-11.9769
▁#3022	-11.9769
▁#3072	-11.9769
▁#3109	-11.9769
▁#3115	-11.9769
▁#3132	-11.9769
▁#4334	-11.9769
▁#6811	-11.9769
▁campagne	-11.9769
▁chère	-11.9769
▁fassiez	-11.9769
▁grandmother	-11.9769
▁middle	-11.9769
▁populaire	-11.9769
▁scientifique	-11.9769
▁thief	-11.9769
Daniel	-11.9769
▁Mettez	-11.9769
ghost	-11.9769
Selen	-11.9769
▁caisse	-11.9769
▁dishes	-11.9769
hook	-11.9769
▁oiseaux	-11.9769
▁consomm	-11.977
▁scene	-11.977
▁contrarié	-11.977
▁protest	-11.977
▁relation	-11.977
▁grass	-11.977
▁tomba	-11.9773
▁#79828	-11.9775
▁gain	-11.9775
odom	-11.9778
▁smarter	-11.9779
▁connaissez	-11.9779
▁#70298	-11.978
▁skier	-11.9781
proof	-11.9782
▁skiing	-11.9784
▁#57831	-11.9788
▁#77632	-11.9789
▁#46932	-11.9803
▁#5700	-11.9806
▁#48720	-11.9807
▁theory	-11.981
▁bague	-11.9814
▁#17939	-11.9818
▁#22027	-11.9822
▁#53864	-11.9825
▁#56858	-11.9828
▁#19912	-11.9842
▁#20362	-11.9842
▁#19703	-11.9846
▁#16533	-11.9849
▁#3923	-11.9853
▁neighbor	-11.9869
▁#23763	-11.987
▁#36456	-11.9871
▁auras	-11.9872
▁étudiante	-11.9878
▁#36521	-11.9881
▁#11846	-11.9882
▁rende	-11.9883
posit	-11.9889
▁#20115	-11.9892
avant	-11.9899
▁#20116	-11.9906
▁race	-11.9913
▁#20467	-11.992
agir	-11.9939
▁capital	-11.994
dark	-11.9942
▁introduce	-11.9942
habitue	-11.9953
Angleterre	-11.9954
échapper	-11.9954
▁#2752	-11.9954
▁#2819	-11.9954
▁#2849	-11.9954
▁#2930	-11.9954
▁#2948	-11.9954
▁#2982	-11.9954
▁#2986	-11.9954
▁#3071	-11.9954
▁#3528	-11.9954
▁#4335	-11.9954
▁#6699	-11.9954
▁absence	-11.9954
▁amazing	-11.9954
▁awesome	-11.9954
▁behavior	-11.9954
▁confectionné	-11.9954
▁gentleman	-11.9954
▁possibility	-11.9954
▁réalité	-11.9954
▁violence	-11.9954
▁épuisé	-11.9954
ambition	-11.9954
▁Two	-11.9954
▁resta	-11.9954
▁losing	-11.9954
▁stock	-11.9954
▁Sors	-11.9955
▁leader	-11.9955
▁allumé	-11.9955
▁guide	-11.9955
▁spell	-11.9956
▁disposons	-11.9957
shake	-11.9958
▁#25456	-11.9958
▁policeman	-11.9958
▁opera	-11.996
▁Excusez	-11.996
▁attach	-11.9962
▁hung	-11.9962
▁#1403	-11.9963
▁disputer	-11.9964
kita	-11.9967
▁amusée	-11.9967
▁cash	-11.9967
étique	-11.9968
▁#4864	-11.9968
▁#1391	-11.9973
▁personnelle	-11.9974
▁#53171	-11.9977
▁#48356	-11.9986
▁#21356	-11.9987
▁trusted	-11.9988
ando	-11.999
▁#46788	-11.999
▁#48719	-11.9992
▁#48718	-11.9992
▁#13680	-12.0001
gui	-12.0008
▁forever	-12.0009
▁#41968	-12.001
▁#16388	-12.001
▁toward	-12.0011
▁#56664	-12.0011
▁#1578	-12.0013
▁#18981	-12.0015
▁alliez	-12.0017
▁#4544	-12.0019
▁#18911	-12.0019
▁détails	-12.0024
▁#2603	-12.0028
▁raise	-12.0034
▁#1362	-12.0036
arrêta	-12.0038
▁#56473	-12.004
▁désir	-12.0054
▁#22500	-12.0061
▁#22842	-12.0061
▁arriva	-12.0063
▁#22410	-12.0068
▁#67166	-12.0077
▁#792	-12.0077
▁low	-12.0081
▁quitte	-12.0081
▁#20121	-12.0085
▁différente	-12.0092
▁judge	-12.0096
lip	-12.0102
manen	-12.0109
occupe	-12.012
itude	-12.0122
▁#1224	-12.013
▁toucher	-12.0133
▁#46268	-12.0141
▁#1502	-12.0143
▁#2496	-12.0143
▁#2782	-12.0143
▁#2979	-12.0143
▁#3231	-12.0143
▁magnifique	-12.0143
exchange	-12.0143
exemple	-12.0143
▁#2405	-12.0143
▁#2570	-12.0143
▁#3037	-12.0143
▁#3047	-12.0143
▁#3184	-12.0143
▁#3253	-12.0143
▁#3521	-12.0143
▁#4336	-12.0143
▁Yesterday	-12.0143
▁dérangé	-12.0143
▁jacket	-12.0143
▁recently	-12.0143
▁goodbye	-12.0143
▁organisé	-12.0143
▁search	-12.0143
▁soldats	-12.0143
▁attitude	-12.0143
▁canadien	-12.0143
▁meurtre	-12.0143
▁prior	-12.0143
▁market	-12.0143
▁grimp	-12.0145
▁Montrez	-12.0148
▁Vois	-12.0149
▁washed	-12.0153
▁#13163	-12.0154
▁#60692	-12.0158
cong	-12.0158
▁video	-12.016
leur	-12.0161
▁#51786	-12.0167
▁#54198	-12.0169
▁#59204	-12.0175
▁#47773	-12.0179
▁#42354	-12.0182
▁#36025	-12.0188
▁#57987	-12.019
▁paying	-12.0192
entry	-12.0194
aurions	-12.0195
▁monter	-12.0197
▁#17780	-12.0199
▁#11744	-12.0199
▁#54582	-12.0203
Li	-12.0208
▁#25471	-12.0209
▁alarm	-12.021
▁#15310	-12.0218
▁#26441	-12.0223
▁#22750	-12.0235
▁#10995	-12.0236
cious	-12.0247
▁#8168	-12.0287
▁tourner	-12.0293
▁#2865	-12.0299
▁#1773	-12.0302
▁clo	-12.0304
▁roi	-12.0316
▁compt	-12.0316
▁#3961	-12.032
allez	-12.032
▁#57027	-12.032
▁#5726	-12.0321
lang	-12.0322
▁#3485	-12.0328
hings	-12.0331
▁remerci	-12.0331
▁Connais	-12.0335
▁conclu	-12.0335
▁#1447	-12.0335
▁#2591	-12.0335
▁#2947	-12.0335
▁#3110	-12.0335
▁#3224	-12.0335
▁#3328	-12.0335
▁Accord	-12.0335
▁With	-12.0335
▁advantage	-12.0335
▁contrat	-12.0335
▁célibataire	-12.0335
▁ennuyeux	-12.0335
▁ourselves	-12.0335
▁picnic	-12.0335
▁system	-12.0335
▁#14411	-12.0335
▁#18424	-12.0335
▁#18457	-12.0335
▁#2423	-12.0335
▁#2941	-12.0335
▁#2984	-12.0335
▁#3113	-12.0335
▁#3161	-12.0335
▁Appelle	-12.0335
▁inutile	-12.0335
▁micro	-12.0335
égard	-12.0335
oblige	-12.0335
▁gars	-12.0335
▁peindre	-12.0335
▁twin	-12.0336
▁pardonner	-12.0336
▁Mother	-12.0336
▁serviette	-12.0337
▁#10130	-12.0337
▁anyway	-12.0338
▁#45484	-12.034
▁verrai	-12.034
Exp	-12.0342
offe	-12.0343
▁hop	-12.0343
▁mecs	-12.0344
rian	-12.0347
▁traveling	-12.0353
▁debt	-12.0353
▁#70470	-12.0354
▁accepted	-12.0356
adam	-12.0359
▁dentiste	-12.036
▁#18878	-12.0361
▁mission	-12.0361
▁#18869	-12.0361
▁#21118	-12.0363
▁#6841	-12.0365
▁#48555	-12.0368
▁#1393	-12.0368
▁#48541	-12.0368
▁#58298	-12.0375
▁#25847	-12.0379
▁#17243	-12.0387
▁#7802	-12.0388
meer	-12.0391
▁#3395	-12.0401
▁vache	-12.0406
▁#18525	-12.0409
▁#24356	-12.0415
▁intelligente	-12.0416
▁#19734	-12.0419
▁#13481	-12.0422
▁centre	-12.0423
▁#6736	-12.0424
▁#13499	-12.0428
▁#41319	-12.0435
▁rel	-12.0437
▁#9537	-12.0446
▁#898	-12.045
▁décida	-12.0452
▁#25476	-12.0474
▁#20444	-12.048
▁#13987	-12.0487
▁#64633	-12.0488
▁cassée	-12.049
▁#3345	-12.0493
▁Sur	-12.0494
▁#48626	-12.0498
▁affect	-12.0499
▁dentist	-12.0506
▁permet	-12.0508
▁#7815	-12.0515
▁#44987	-12.052
▁démission	-12.0531
▁#2737	-12.0531
▁#2839	-12.0531
▁#3254	-12.0531
application	-12.0531
intérêt	-12.0531
▁#1509	-12.0531
▁#2635	-12.0531
▁#2889	-12.0531
▁#3000	-12.0531
▁#3019	-12.0531
▁#3043	-12.0531
▁#3075	-12.0531
▁#3155	-12.0531
▁#3232	-12.0531
▁#3380	-12.0531
▁#4602	-12.0531
▁England	-12.0531
▁advance	-12.0531
▁available	-12.0531
▁blesser	-12.0531
▁convient	-12.0531
▁disponible	-12.0531
▁merveilleux	-12.0531
▁moving	-12.0531
▁practice	-12.0531
▁réveiller	-12.0531
▁themselves	-12.0531
▁upstairs	-12.0531
▁vidéo	-12.0531
▁Write	-12.0531
▁third	-12.0531
▁email	-12.0531
▁clef	-12.0531
▁diary	-12.0531
▁devient	-12.0532
▁repeat	-12.0532
▁conclusion	-12.0532
▁tremblement	-12.0532
▁failure	-12.0532
▁nuts	-12.0534
objectif	-12.0537
▁perfectly	-12.0539
▁awful	-12.054
suppl	-12.0542
▁#61670	-12.0544
▁pneu	-12.0546
▁#46790	-12.0547
▁#69266	-12.0551
▁#26472	-12.056
▁#52913	-12.0564
▁#45508	-12.0564
pne	-12.0566
▁#58350	-12.0567
▁roul	-12.0569
▁#16905	-12.0571
▁#23920	-12.0573
▁#3342	-12.0573
▁#18607	-12.0574
▁#17688	-12.0574
▁Fai	-12.0576
▁#17892	-12.0579
▁#13287	-12.058
▁songé	-12.0581
tomate	-12.0582
▁#17924	-12.0584
▁#22923	-12.0585
▁#22211	-12.059
▁#68436	-12.0598
▁#58010	-12.0601
▁#21902	-12.0602
▁#14501	-12.0609
▁#11413	-12.0612
▁#45506	-12.0617
▁#7995	-12.0618
gation	-12.0619
▁#4626	-12.0619
▁artiste	-12.062
▁#19016	-12.0623
▁#22183	-12.0639
▁retirer	-12.0642
▁présenté	-12.0643
▁#36474	-12.0648
▁tenai	-12.0653
▁#35145	-12.0657
▁#22526	-12.0664
▁posa	-12.0668
▁#2852	-12.0669
▁#798	-12.0672
▁#2410	-12.0674
▁#13727	-12.0676
▁laissée	-12.0678
▁#13476	-12.0679
▁#24825	-12.068
▁#5799	-12.0681
▁#20117	-12.0684
aurons	-12.0684
▁coût	-12.069
▁#3213	-12.0693
▁#20446	-12.0695
▁complet	-12.0699
raised	-12.0707
▁#79602	-12.0715
▁traiter	-12.0715
▁pleure	-12.0719
▁#36437	-12.0723
▁Dépêche	-12.0731
assurance	-12.0731
▁#1400	-12.0731
▁#1444	-12.0731
▁#2933	-12.0731
▁#2973	-12.0731
▁#2978	-12.0731
▁#3009	-12.0731
▁#3102	-12.0731
▁#3114	-12.0731
▁#3121	-12.0731
▁#3127	-12.0731
▁#3207	-12.0731
▁bonheur	-12.0731
▁comprenez	-12.0731
▁copain	-12.0731
▁credit	-12.0731
▁dancing	-12.0731
▁disagree	-12.0731
▁examination	-12.0731
▁fréquen	-12.0731
▁hobby	-12.0731
▁jaloux	-12.0731
éviter	-12.0731
▁#3028	-12.0731
▁Demain	-12.0731
▁example	-12.0731
▁feuilles	-12.0731
▁resign	-12.0731
▁soldiers	-12.0731
▁copy	-12.0731
▁suffisant	-12.0731
▁Time	-12.0732
▁nerveuse	-12.0732
▁disease	-12.0732
kamil	-12.0732
▁failli	-12.0733
▁denied	-12.0733
▁nurse	-12.0734
▁voit	-12.0734
▁loss	-12.0734
▁sensible	-12.0735
▁hire	-12.0737
▁continué	-12.0739
▁#65455	-12.0742
arrow	-12.0743
▁hired	-12.0745
▁teaching	-12.0748
▁Leur	-12.0752
▁size	-12.0754
▁#24024	-12.0755
▁Deux	-12.0756
élu	-12.0757
▁#54616	-12.0758
▁#19615	-12.0759
▁except	-12.076
▁#25479	-12.0761
▁#46555	-12.0762
▁#1361	-12.0766
▁personnel	-12.0766
▁#25477	-12.0767
▁#53027	-12.077
▁#2393	-12.077
▁#2466	-12.0778
▁#47661	-12.0781
▁#2372	-12.0782
▁#24512	-12.0782
▁#57941	-12.0785
▁#22287	-12.0788
▁#53811	-12.0791
▁#57019	-12.0792
▁détest	-12.0797
▁#58004	-12.0805
▁#33310	-12.0808
▁#57075	-12.0811
▁#2465	-12.0811
▁#6402	-12.0819
▁#32453	-12.0822
ffe	-12.0823
▁#35917	-12.0825
▁#56859	-12.0828
▁#20261	-12.0835
▁laid	-12.0835
▁#36481	-12.084
▁conseille	-12.084
▁#37293	-12.0841
abri	-12.0844
▁veuille	-12.0845
▁#3343	-12.0853
▁#4879	-12.0857
▁#9682	-12.0859
▁malin	-12.086
issent	-12.0871
mmor	-12.0877
▁#54059	-12.0878
▁#812	-12.0881
▁#22403	-12.0882
armée	-12.0882
▁#2890	-12.0911
▁#58030	-12.0913
▁entendue	-12.0917
▁#47796	-12.0925
▁Moi	-12.0932
▁#3174	-12.0935
déjeuné	-12.0935
hésite	-12.0935
▁#18458	-12.0935
▁#2484	-12.0935
▁#2575	-12.0935
▁#2707	-12.0935
▁#2727	-12.0935
▁#2780	-12.0935
▁#2949	-12.0935
▁#2966	-12.0935
▁#3049	-12.0935
▁#3067	-12.0935
▁#3087	-12.0935
▁#3920	-12.0935
▁#6729	-12.0935
▁#6809	-12.0935
▁approach	-12.0935
▁easier	-12.0935
▁expliqué	-12.0935
▁pleuré	-12.0935
▁régime	-12.0935
▁similar	-12.0935
▁système	-12.0935
▁organized	-12.0935
▁reply	-12.0935
▁survenu	-12.0935
▁source	-12.0936
enfance	-12.0936
▁sofa	-12.0936
Open	-12.0936
▁#25450	-12.0936
lel	-12.0938
▁draw	-12.0939
▁pareille	-12.0939
▁#82376	-12.094
▁hall	-12.094
hrew	-12.094
▁Celui	-12.0941
▁insult	-12.0943
▁#78492	-12.0945
▁lavé	-12.0946
Juli	-12.0947
▁entra	-12.0947
▁salu	-12.0948
▁garé	-12.0948
▁staring	-12.0949
▁#24476	-12.095
inclu	-12.0954
▁disait	-12.0961
▁#39739	-12.0962
▁terminée	-12.0963
▁complete	-12.0967
▁#2399	-12.0968
▁#53316	-12.0969
▁déçue	-12.0969
▁#22898	-12.0971
▁#75506	-12.0973
nico	-12.0975
▁#12437	-12.098
▁#53695	-12.0981
▁#58221	-12.0982
▁#43638	-12.0984
▁#20741	-12.0989
▁#22035	-12.099
▁#22037	-12.0991
pop	-12.0999
▁#3215	-12.1
▁#18907	-12.1001
▁#22266	-12.1002
opéra	-12.1005
▁#18900	-12.1005
▁#36399	-12.1005
aujourd	-12.1008
▁#18937	-12.1011
ssait	-12.1013
▁#35992	-12.102
▁#47112	-12.1021
▁#19775	-12.1024
▁#56455	-12.1028
▁#1025	-12.1029
▁#14605	-12.1032
usqu	-12.1042
▁#7960	-12.1043
▁#75443	-12.1047
▁#20220	-12.1053
▁#58043	-12.1055
▁rendue	-12.1061
▁ressenti	-12.1068
▁#3354	-12.1073
▁confi	-12.1075
▁#2501	-12.1075
pérons	-12.1075
renda	-12.1087
▁#48628	-12.109
▁#35911	-12.1095
▁#35968	-12.1103
▁#21630	-12.1116
▁fac	-12.1125
▁repair	-12.1138
▁égal	-12.1143
adolescent	-12.1144
négoci	-12.1144
▁#1504	-12.1144
▁#2516	-12.1144
▁#2572	-12.1144
▁#2578	-12.1144
▁#2604	-12.1144
▁#2733	-12.1144
▁#2901	-12.1144
▁#3040	-12.1144
▁#39369	-12.1144
▁#3937	-12.1144
▁#4645	-12.1144
▁Fuji	-12.1144
▁Internet	-12.1144
▁atteint	-12.1144
▁biscuits	-12.1144
▁pleasure	-12.1144
▁prouver	-12.1144
▁punctual	-12.1144
▁unlikely	-12.1144
▁violon	-12.1144
▁voulaient	-12.1144
▁#2701	-12.1144
▁crédit	-12.1144
amitié	-12.1144
otoba	-12.1144
▁parlons	-12.1144
▁argue	-12.1144
▁gather	-12.1144
▁roof	-12.1144
▁démissionner	-12.1144
▁cercle	-12.1144
▁dying	-12.1145
▁#79674	-12.1145
▁clairement	-12.1145
▁#45485	-12.1145
Sitt	-12.1149
▁dame	-12.1149
▁Fermez	-12.115
▁gaz	-12.115
▁ivre	-12.1151
▁Good	-12.1151
▁#25453	-12.1152
▁burned	-12.1152
▁reposer	-12.1153
▁#1200	-12.1155
▁réveillée	-12.116
▁sentez	-12.116
▁#46791	-12.1161
▁#25426	-12.1162
▁suffit	-12.1163
▁#59455	-12.1165
▁#53170	-12.1169
▁#54615	-12.1169
▁#58960	-12.1171
pression	-12.1172
▁ears	-12.1172
▁#46820	-12.1176
▁#59339	-12.1176
▁#45513	-12.1179
▁sommet	-12.118
▁#48335	-12.1182
▁souffre	-12.1184
▁#17377	-12.1192
▁#21640	-12.1195
▁#46539	-12.1197
▁#68636	-12.12
allons	-12.1212
▁#2462	-12.1214
▁rac	-12.1215
mona	-12.1217
▁#18978	-12.1217
▁#20648	-12.1218
▁#16507	-12.1218
▁#19662	-12.122
▁#19707	-12.1223
▁#13135	-12.1224
abus	-12.1228
étudiant	-12.1232
▁#21871	-12.1232
▁#14747	-12.1233
écrit	-12.1256
▁#9543	-12.1259
▁#25848	-12.1261
▁#24905	-12.1261
▁satisfaite	-12.1275
▁#48605	-12.1281
▁#3370	-12.1282
▁#21019	-12.1288
▁#21441	-12.1296
▁#1936	-12.1302
▁#24975	-12.1307
▁#48672	-12.1315
▁#2916	-12.132
▁#4293	-12.1328
▁#5297	-12.1334
▁#3229	-12.1339
▁#1967	-12.1342
▁dispute	-12.1346
emory	-12.1351
▁thin	-12.1353
▁#1437	-12.1357
▁#2498	-12.1357
▁#2499	-12.1357
▁#2563	-12.1357
▁#2579	-12.1357
▁#2598	-12.1357
▁#2618	-12.1357
▁#2692	-12.1357
▁#2769	-12.1357
▁#2833	-12.1357
▁#2882	-12.1357
▁#2885	-12.1357
▁#2976	-12.1357
▁#2981	-12.1357
▁#3030	-12.1357
▁#3048	-12.1357
▁#3099	-12.1357
▁#6842	-12.1357
▁#720	-12.1357
▁Voyons	-12.1357
▁annulé	-12.1357
▁complicated	-12.1357
▁croyais	-12.1357
▁disappear	-12.1357
▁méchant	-12.1357
▁postpone	-12.1357
▁réalisé	-12.1357
▁thirsty	-12.1357
▁utilisé	-12.1357
▁#1430	-12.1357
▁#3126	-12.1357
▁sauter	-12.1357
▁behave	-12.1357
atteindre	-12.1357
effet	-12.1357
▁Day	-12.1357
▁Terre	-12.1357
▁stress	-12.1357
▁profondément	-12.1357
asquet	-12.1357
▁craint	-12.1357
▁cops	-12.1357
▁blanche	-12.1357
▁national	-12.1358
▁blow	-12.1358
▁Tiens	-12.1358
▁semblant	-12.1358
▁useful	-12.136
▁tenta	-12.136
▁Shu	-12.136
▁#45473	-12.136
▁fairly	-12.1361
▁sors	-12.1361
▁bouger	-12.1361
mega	-12.1362
▁saviez	-12.1362
▁#82375	-12.1363
▁chanteur	-12.1367
acted	-12.137
▁introduced	-12.137
▁#13164	-12.1377
▁#77458	-12.1379
▁#48425	-12.1382
▁#48017	-12.1384
Jane	-12.1385
▁wor	-12.1385
▁#18830	-12.1388
▁soif	-12.1388
▁butter	-12.1388
▁#21114	-12.1389
▁#48540	-12.1394
▁#3718	-12.1397
▁#55244	-12.14
▁Japonais	-12.1406
filled	-12.1413
▁#22918	-12.1416
▁#44041	-12.142
▁manqu	-12.142
▁#11967	-12.1423
▁#14958	-12.1424
▁#21095	-12.1424
▁#3358	-12.1428
▁#2898	-12.144
▁#16540	-12.1442
▁#14538	-12.1443
▁#14520	-12.1446
▁#13953	-12.1452
▁#24032	-12.1464
ordinateur	-12.1466
coming	-12.1475
▁bienvenue	-12.1493
ngle	-12.1499
▁devra	-12.1502
▁#2113	-12.1504
▁#48627	-12.1513
▁#6839	-12.1515
▁#26461	-12.1526
facts	-12.1532
▁#13424	-12.1533
▁#4356	-12.1533
▁leva	-12.1544
inten	-12.1563
▁#24020	-12.1567
élève	-12.1567
▁disappoint	-12.1568
▁moque	-12.1569
ordinaire	-12.1573
▁#1511	-12.1574
▁#2518	-12.1574
▁#2554	-12.1574
▁#2600	-12.1574
▁#2617	-12.1574
▁#2631	-12.1574
▁#2719	-12.1574
▁#2811	-12.1574
▁#2845	-12.1574
▁#3156	-12.1574
▁#32593	-12.1574
▁Harvard	-12.1574
▁couramment	-12.1574
▁criminal	-12.1574
▁diplômé	-12.1574
▁downstairs	-12.1574
▁improbable	-12.1574
▁poupée	-12.1574
▁énervé	-12.1574
▁#2616	-12.1574
▁#2805	-12.1574
▁ponctuel	-12.1574
▁determine	-12.1574
▁voyez	-12.1574
▁détendre	-12.1574
▁stomach	-12.1574
▁Pren	-12.1574
▁#13150	-12.1575
▁miles	-12.1575
emmener	-12.1575
▁toilettes	-12.1575
espérais	-12.1575
▁assistant	-12.1576
horreur	-12.1576
▁Mars	-12.1576
▁comportement	-12.1578
▁Rend	-12.1578
▁candle	-12.1579
▁jumped	-12.1582
▁#80649	-12.1586
▁#5366	-12.1587
kdo	-12.1587
Low	-12.1588
▁moral	-12.1588
▁considéré	-12.1588
▁highly	-12.1589
▁suggested	-12.1589
▁#70452	-12.1594
▁#70469	-12.1596
▁#18498	-12.1597
▁#70891	-12.1602
▁#21143	-12.1603
invit	-12.1605
essayez	-12.1608
▁#2137	-12.1609
▁#47158	-12.161
▁#23418	-12.1615
▁#54024	-12.1615
▁#47755	-12.1625
▁#68638	-12.1626
▁#16643	-12.1628
▁#22030	-12.1637
▁#56882	-12.1638
▁#54112	-12.1639
▁rare	-12.1642
▁#56439	-12.1647
▁#4748	-12.1652
▁#18582	-12.1656
crivez	-12.1656
▁reconnaissante	-12.1659
▁traversé	-12.1661
▁#33129	-12.1663
▁Joue	-12.1672
▁#1079	-12.1678
▁#24031	-12.1682
▁#4867	-12.1686
▁#5293	-12.1693
▁#14469	-12.1696
chose	-12.1713
▁#4873	-12.1718
▁#3644	-12.1722
▁impatiente	-12.1727
▁#55913	-12.1765
▁#2397	-12.1772
▁#5418	-12.1774
étend	-12.1778
▁#14542	-12.1779
▁suffer	-12.1791
▁#2597	-12.1795
▁soudain	-12.1796
infirmière	-12.1796
institutrice	-12.1796
▁#1646	-12.1796
▁#2492	-12.1796
▁#2550	-12.1796
▁#2560	-12.1796
▁#2568	-12.1796
▁#2583	-12.1796
▁#2613	-12.1796
▁#2620	-12.1796
▁#2793	-12.1796
▁#2980	-12.1796
▁#3026	-12.1796
▁#3039	-12.1796
▁#3098	-12.1796
▁#3104	-12.1796
▁#3117	-12.1796
▁#3147	-12.1796
▁#3169	-12.1796
▁#3240	-12.1796
▁#6627	-12.1796
▁#6670	-12.1796
▁#6887	-12.1796
▁achieve	-12.1796
▁aveugle	-12.1796
▁delicious	-12.1796
▁fantôme	-12.1796
▁guère	-12.1796
▁insurance	-12.1796
▁neighborhood	-12.1796
▁remarque	-12.1796
▁supermarché	-12.1796
▁supermarket	-12.1796
▁permit	-12.1796
▁accustom	-12.1796
▁pilot	-12.1796
▁illegal	-12.1796
▁crash	-12.1796
▁tente	-12.1796
▁above	-12.1796
▁social	-12.1796
essence	-12.1797
Blue	-12.1798
▁#1199	-12.1798
▁fever	-12.1798
▁frightened	-12.1799
▁démarrer	-12.1799
▁#45483	-12.18
▁baisse	-12.18
▁chanceuse	-12.18
▁jail	-12.1802
▁enseignante	-12.1803
écris	-12.1804
▁contrôler	-12.1806
▁#78491	-12.1807
▁#70607	-12.1809
▁#13168	-12.181
▁#72911	-12.181
▁futur	-12.181
▁retired	-12.1812
▁#46786	-12.1815
▁#1394	-12.1816
▁#57242	-12.1821
▁#18462	-12.1823
▁#18870	-12.1825
▁#58947	-12.1829
▁#49632	-12.183
▁#51935	-12.1831
▁#64798	-12.1832
▁#1366	-12.1842
▁#24354	-12.1849
acceptable	-12.1849
appela	-12.1853
▁#16638	-12.1854
▁#22025	-12.1855
▁#75212	-12.186
▁regretter	-12.1861
▁#17065	-12.1862
▁#24824	-12.1865
▁#16300	-12.1867
▁#24649	-12.1868
▁#54023	-12.1868
▁#19391	-12.1868
▁#21096	-12.1873
rois	-12.1876
▁#3340	-12.1877
▁Any	-12.1879
rank	-12.1889
▁#2820	-12.1893
objection	-12.1898
▁#53315	-12.19
▁#4523	-12.1903
▁#26466	-12.1905
▁enseigne	-12.1907
▁prêté	-12.1926
▁#25091	-12.1932
▁#26033	-12.1933
alien	-12.1937
▁#3331	-12.1937
▁détail	-12.1938
▁#18160	-12.1941
▁#29549	-12.1942
bril	-12.1953
▁#78390	-12.196
wore	-12.197
▁rate	-12.1979
▁#4740	-12.198
▁clou	-12.1983
▁#18463	-12.1999
onnaissez	-12.2016
▁#2144	-12.2018
▁#5306	-12.2019
▁dépêch	-12.2019
▁#5591	-12.202
▁voudr	-12.202
▁discover	-12.2023
étagère	-12.2023
▁#2566	-12.2023
▁#2569	-12.2023
▁#2739	-12.2023
▁#2772	-12.2023
▁#2938	-12.2023
▁#2959	-12.2023
▁#2968	-12.2023
▁#3068	-12.2023
▁#3103	-12.2023
▁#3145	-12.2023
▁#3163	-12.2023
▁#3164	-12.2023
▁#3205	-12.2023
▁#6816	-12.2023
▁Father	-12.2023
▁Trouve	-12.2023
▁airplane	-12.2023
▁childhood	-12.2023
▁compromis	-12.2023
▁emergency	-12.2023
▁grateful	-12.2023
▁mathématiques	-12.2023
▁pantalon	-12.2023
▁responsibility	-12.2023
▁temperature	-12.2023
▁#2483	-12.2023
▁#2837	-12.2023
▁#2871	-12.2023
▁#2962	-12.2023
▁#3002	-12.2023
▁#3326	-12.2023
▁journaux	-12.2023
▁offended	-12.2023
▁request	-12.2023
▁website	-12.2023
▁space	-12.2023
▁Chacun	-12.2023
▁steak	-12.2023
▁soutien	-12.2024
Guil	-12.2024
▁ferions	-12.2024
▁veniez	-12.2024
aimais	-12.2024
▁#75626	-12.2024
▁coincé	-12.2024
▁Rome	-12.2025
rabic	-12.2026
usten	-12.2027
▁traité	-12.2027
▁slight	-12.2029
▁chargé	-12.2031
▁clearly	-12.2032
inquiéter	-12.2032
▁ordres	-12.2033
▁cesser	-12.2034
▁supplie	-12.2035
▁Crois	-12.2036
▁#13449	-12.2037
▁#5636	-12.2037
▁treated	-12.2038
▁checked	-12.2048
▁étrangers	-12.2051
▁#13854	-12.2052
inviter	-12.2056
▁#5760	-12.2059
▁state	-12.2062
▁#53040	-12.2064
▁garer	-12.2065
▁#54036	-12.2067
▁#41967	-12.2068
▁#54946	-12.2072
▁censée	-12.2073
onze	-12.2074
▁#4866	-12.2077
▁#22029	-12.2082
▁rained	-12.2085
▁#56881	-12.2087
▁#4665	-12.2088
ipped	-12.2095
tenez	-12.2097
▁bol	-12.21
▁#58008	-12.2102
▁#45519	-12.2116
▁#33860	-12.2133
▁trick	-12.2135
▁#66967	-12.2136
▁damage	-12.2137
▁#68185	-12.2148
▁#228824	-12.2152
▁Aimerai	-12.2172
▁#28912	-12.2224
▁pin	-12.2235
▁pêche	-12.225
issons	-12.2253
▁sudden	-12.2254
▁accro	-12.2254
▁contrariée	-12.2255
oubli	-12.2255
▁#2528	-12.2256
▁#3124	-12.2256
ennuie	-12.2256
enquête	-12.2256
▁#2449	-12.2256
▁#2610	-12.2256
▁#2623	-12.2256
▁#2659	-12.2256
▁#27136	-12.2256
▁#2763	-12.2256
▁#2848	-12.2256
▁#2876	-12.2256
▁#2924	-12.2256
▁#2985	-12.2256
▁#2990	-12.2256
▁#2992	-12.2256
▁#2995	-12.2256
▁#3033	-12.2256
▁#3101	-12.2256
▁#3125	-12.2256
▁#3134	-12.2256
▁#3233	-12.2256
▁#4337	-12.2256
▁#4647	-12.2256
▁Arrive	-12.2256
▁Friday	-12.2256
▁Parfois	-12.2256
▁ambulance	-12.2256
▁betrayed	-12.2256
▁describe	-12.2256
▁dépensé	-12.2256
▁fièvre	-12.2256
▁gaspille	-12.2256
▁guests	-12.2256
▁hesitate	-12.2256
▁minuit	-12.2256
▁pouviez	-12.2256
▁provide	-12.2256
▁style	-12.2256
▁surprend	-12.2256
▁tradition	-12.2256
▁ugly	-12.2256
tapot	-12.2256
▁brillant	-12.2256
▁Jamais	-12.2256
▁shape	-12.2256
▁winning	-12.2256
▁Tenez	-12.2256
odeur	-12.2256
▁Compare	-12.2256
▁malheureux	-12.2256
▁#75623	-12.2257
acte	-12.2257
▁pressure	-12.2257
▁#79094	-12.2257
▁vendredi	-12.2258
ology	-12.2259
▁moteur	-12.2259
▁#2432	-12.2259
exige	-12.2261
▁#25466	-12.2261
▁perdit	-12.2261
▁#45486	-12.2261
▁dessin	-12.2261
▁coffre	-12.2261
▁Parlez	-12.2263
▁refer	-12.2264
▁#79818	-12.2264
▁lower	-12.2264
▁woods	-12.2266
▁mayor	-12.2271
▁parfaite	-12.2271
daf	-12.2272
▁#43975	-12.2274
▁borrowed	-12.2274
▁#4995	-12.2275
Jack	-12.2277
▁#55891	-12.2279
ronos	-12.2282
▁#70072	-12.2282
▁fixed	-12.2285
▁#18877	-12.2287
▁#56193	-12.2288
▁#21235	-12.2288
usine	-12.2295
▁#9928	-12.2297
▁#54035	-12.2299
▁nourrir	-12.2311
▁inform	-12.2311
▁manuel	-12.2316
sentais	-12.2321
▁rely	-12.2331
▁#18159	-12.2339
▁bienvenu	-12.2344
intended	-12.2345
▁#3652	-12.2349
▁déranger	-12.2357
accompagner	-12.2363
▁#183965	-12.2364
oos	-12.2366
herbe	-12.2371
▁#25423	-12.2376
▁ravie	-12.2377
élection	-12.2394
usion	-12.2401
▁compl	-12.2405
▁chatte	-12.2407
essayai	-12.2415
▁téléphoner	-12.2431
▁autorisée	-12.2434
▁fonctionner	-12.244
gla	-12.2447
▁#53479	-12.245
room	-12.2456
ville	-12.2465
▁victime	-12.2473
▁#4357	-12.2475
▁persuade	-12.2476
▁tradui	-12.2476
utiliser	-12.2477
▁#986	-12.2483
igna	-12.2491
▁#2573	-12.2494
emmène	-12.2494
▁#18019	-12.2494
▁#1805	-12.2494
▁#2494	-12.2494
▁#2571	-12.2494
▁#2615	-12.2494
▁#26485	-12.2494
▁#2718	-12.2494
▁#2722	-12.2494
▁#2723	-12.2494
▁#2776	-12.2494
▁#2799	-12.2494
▁#2832	-12.2494
▁#2880	-12.2494
▁#2905	-12.2494
▁#2993	-12.2494
▁#3017	-12.2494
▁#3077	-12.2494
▁#3192	-12.2494
▁#3323	-12.2494
▁#3325	-12.2494
▁#68449	-12.2494
▁#6883	-12.2494
▁arguing	-12.2494
▁blessure	-12.2494
▁efficace	-12.2494
▁everywhere	-12.2494
▁hurried	-12.2494
▁jalouse	-12.2494
▁parvenir	-12.2494
▁récemment	-12.2494
▁salary	-12.2494
▁sincère	-12.2494
▁aliments	-12.2494
▁séparé	-12.2494
▁gardé	-12.2494
▁natif	-12.2494
▁saving	-12.2494
▁happiness	-12.2494
▁bathroom	-12.2494
▁réparé	-12.2494
▁accent	-12.2494
▁promener	-12.2494
▁towel	-12.2494
▁knee	-12.2495
▁beurre	-12.2495
▁totalement	-12.2495
silver	-12.2495
hibou	-12.2496
▁voudrait	-12.2496
▁fence	-12.2496
▁apply	-12.2496
▁abandoned	-12.2497
apprécierais	-12.2497
▁careless	-12.25
▁#5399	-12.2501
▁crossed	-12.2505
▁complained	-12.2506
▁succeeded	-12.2511
▁disposer	-12.2512
▁#70451	-12.2517
▁smaller	-12.2522
▁plantes	-12.2522
law	-12.2523
▁cleaned	-12.2526
▁solved	-12.2532
▁#45511	-12.2542
▁#24265	-12.2542
▁#12870	-12.2542
▁données	-12.2543
hx	-12.2548
▁cure	-12.2553
▁#22085	-12.2554
▁doué	-12.2561
ussitôt	-12.2566
▁#1010	-12.2568
▁object	-12.2573
▁War	-12.2582
▁mérit	-12.2587
▁#13590	-12.2592
▁#45617	-12.2597
▁#16009	-12.2603
mber	-12.2613
▁#731	-12.2615
▁scare	-12.2624
▁#4215	-12.2625
▁tenue	-12.2647
▁#25474	-12.265
amie	-12.266
▁touché	-12.2664
▁#4297	-12.2668
ignit	-12.2669
head	-12.2675
▁concentr	-12.268
▁#36588	-12.2683
▁#4277	-12.2694
▁#68477	-12.2698
assure	-12.2717
original	-12.2723
eriz	-12.273
▁confus	-12.2732
▁horr	-12.2735
ambitious	-12.2738
immeuble	-12.2738
veggie	-12.2738
▁#23231	-12.2738
▁#24113	-12.2738
▁#24114	-12.2738
▁#2418	-12.2738
▁#2425	-12.2738
▁#2486	-12.2738
▁#2519	-12.2738
▁#2556	-12.2738
▁#2562	-12.2738
▁#2588	-12.2738
▁#2595	-12.2738
▁#26480	-12.2738
▁#2708	-12.2738
▁#2744	-12.2738
▁#2774	-12.2738
▁#2784	-12.2738
▁#2810	-12.2738
▁#2844	-12.2738
▁#2846	-12.2738
▁#2960	-12.2738
▁#3010	-12.2738
▁#3012	-12.2738
▁#3027	-12.2738
▁#3045	-12.2738
▁#3050	-12.2738
▁#3107	-12.2738
▁#3119	-12.2738
▁#3165	-12.2738
▁#3195	-12.2738
▁#3209	-12.2738
▁#3237	-12.2738
▁#3382	-12.2738
▁#5394	-12.2738
▁#6880	-12.2738
▁ability	-12.2738
▁apparence	-12.2738
▁confess	-12.2738
▁courrier	-12.2738
▁exciting	-12.2738
▁jazz	-12.2738
▁occurred	-12.2738
▁pouvions	-12.2738
▁rompu	-12.2738
▁spectacle	-12.2738
▁température	-12.2738
▁échappé	-12.2738
▁Canada	-12.2738
▁débat	-12.2738
▁engagé	-12.2738
▁médi	-12.2738
▁classroom	-12.2738
▁complex	-12.2738
▁naked	-12.2738
▁foolish	-12.2739
▁predict	-12.2739
habituer	-12.2739
eddy	-12.274
▁soft	-12.274
▁contest	-12.274
▁hill	-12.2741
▁model	-12.2742
▁Hand	-12.2743
▁pond	-12.2744
▁code	-12.2745
▁#79817	-12.2747
▁climbed	-12.2747
▁Gardez	-12.2747
▁hole	-12.2748
▁dare	-12.2748
▁pushed	-12.2748
▁Verr	-12.275
▁workers	-12.2755
▁consist	-12.2757
▁travaillent	-12.2761
▁#71249	-12.2763
▁smiled	-12.2764
▁#1843	-12.2767
▁#80307	-12.2768
hemis	-12.2769
▁Fro	-12.2772
▁mangez	-12.2775
▁#24435	-12.2778
▁#57626	-12.2778
▁#57417	-12.2805
▁#4619	-12.2813
▁#78158	-12.2813
▁#13396	-12.2824
▁visité	-12.2827
▁#4223	-12.2856
▁#57416	-12.2863
▁#1521	-12.2865
▁#6864	-12.2868
▁#14087	-12.2876
▁#4747	-12.2877
▁#13407	-12.2879
aking	-12.2885
▁lesson	-12.2885
vul	-12.2887
▁program	-12.2889
ouverture	-12.29
▁flower	-12.2903
▁#4787	-12.2913
▁#2917	-12.2914
▁Min	-12.2925
près	-12.2925
▁souffr	-12.294
▁#13395	-12.2947
▁#13591	-12.296
▁#68212	-12.2961
▁affair	-12.2969
▁#3514	-12.297
▁advise	-12.2976
light	-12.2981
▁profession	-12.2984
▁#3874	-12.2984
habille	-12.2986
apprends	-12.2988
▁#25484	-12.2988
▁#2622	-12.2988
▁#2624	-12.2988
▁#2669	-12.2988
▁#2686	-12.2988
▁#2877	-12.2988
▁#2983	-12.2988
▁#2997	-12.2988
▁#2998	-12.2988
▁#3079	-12.2988
▁#3094	-12.2988
▁#3097	-12.2988
▁#3118	-12.2988
▁#3235	-12.2988
▁#3381	-12.2988
▁#6824	-12.2988
▁#7713	-12.2988
▁curieux	-12.2988
▁drowned	-12.2988
▁désespéré	-12.2988
▁furniture	-12.2988
▁loyer	-12.2988
▁midnight	-12.2988
▁proximité	-12.2988
▁violent	-12.2988
estomac	-12.2988
▁#2689	-12.2988
▁#2690	-12.2988
▁#2767	-12.2988
▁#2999	-12.2988
▁#3066	-12.2988
▁#3173	-12.2988
▁#3191	-12.2988
▁Few	-12.2988
▁spread	-12.2988
▁greet	-12.2988
▁offensé	-12.2988
▁attirant	-12.2988
objet	-12.2988
▁tarte	-12.2989
▁souhaiterais	-12.2989
aimons	-12.299
▁entier	-12.299
▁#79679	-12.2992
▁nerve	-12.2993
▁vague	-12.2993
▁repaired	-12.2995
▁amical	-12.2997
▁discuté	-12.2997
▁chanté	-12.2999
▁#55243	-12.3002
exprimer	-12.3003
▁traduire	-12.3007
▁divorced	-12.3013
▁neiger	-12.3015
▁#63183	-12.3016
▁#14091	-12.3018
▁partager	-12.3021
▁badly	-12.3022
▁worrying	-12.3023
▁#18838	-12.3023
▁#4663	-12.3024
▁sand	-12.3035
▁#13477	-12.3035
▁#13136	-12.3057
▁#4276	-12.3059
▁#25899	-12.3063
▁confiant	-12.3068
▁#14094	-12.3092
▁#13398	-12.3113
▁#2914	-12.3114
▁informé	-12.3126
Tch	-12.315
▁bête	-12.3151
arents	-12.3153
▁#66040	-12.3154
▁shoe	-12.316
▁prévoi	-12.316
▁#3473	-12.3173
▁#25497	-12.3191
lpa	-12.3198
▁#13146	-12.3212
▁#4651	-12.3214
orta	-12.322
donna	-12.3232
▁partage	-12.3232
▁#2531	-12.324
emprunt	-12.3242
▁#6952	-12.3244
influence	-12.3244
économie	-12.3244
éducation	-12.3244
▁#1644	-12.3244
▁#18401	-12.3244
▁#2441	-12.3244
▁#2485	-12.3244
▁#2523	-12.3244
▁#2557	-12.3244
▁#2581	-12.3244
▁#2599	-12.3244
▁#2621	-12.3244
▁#26631	-12.3244
▁#2674	-12.3244
▁#2685	-12.3244
▁#27131	-12.3244
▁#2745	-12.3244
▁#2779	-12.3244
▁#2878	-12.3244
▁#2906	-12.3244
▁#2925	-12.3244
▁#2926	-12.3244
▁#2943	-12.3244
▁#2994	-12.3244
▁#3025	-12.3244
▁#3085	-12.3244
▁#3089	-12.3244
▁#3159	-12.3244
▁#3220	-12.3244
▁#36530	-12.3244
▁#4641	-12.3244
▁#53935	-12.3244
▁#6347	-12.3244
▁#6662	-12.3244
▁#6881	-12.3244
▁banane	-12.3244
▁brûlé	-12.3244
▁cooperat	-12.3244
▁dizzy	-12.3244
▁pleasant	-12.3244
▁possession	-12.3244
▁ressens	-12.3244
▁scientist	-12.3244
▁souffle	-12.3244
▁violin	-12.3244
▁énorme	-12.3244
▁raisonnable	-12.3244
▁stairs	-12.3244
Language	-12.3244
▁rescue	-12.3244
▁Devrai	-12.3244
▁connaissais	-12.3244
▁justice	-12.3245
▁corner	-12.3245
▁réserve	-12.3245
▁criminel	-12.3245
▁frappa	-12.3245
▁block	-12.3245
▁loan	-12.3246
▁jeans	-12.3246
▁Cessez	-12.3246
Lind	-12.3246
▁destination	-12.3247
▁dérangerait	-12.3247
dessous	-12.3247
▁host	-12.3247
▁concentrer	-12.3249
▁dépêcher	-12.3249
▁travaillai	-12.3251
▁#65456	-12.3256
▁pulled	-12.3258
▁#81266	-12.3258
▁contacter	-12.3261
aviez	-12.3262
▁souper	-12.3263
▁capitale	-12.3264
kiy	-12.3267
▁pale	-12.3268
▁Entre	-12.3271
nicky	-12.3272
▁ignored	-12.3273
▁#1777	-12.3314
▁#4704	-12.3338
▁#25458	-12.3338
▁#2899	-12.3353
▁Eat	-12.3357
ommes	-12.3358
▁ressent	-12.336
ranchement	-12.3376
▁conten	-12.3389
▁#1953	-12.341
▁servir	-12.3415
vant	-12.342
▁#13516	-12.3436
▁mord	-12.3441
▁#13505	-12.3443
▁#2918	-12.3462
▁invite	-12.3464
▁#2094	-12.3476
▁confront	-12.3508
amène	-12.3508
ascenseur	-12.3508
échoue	-12.3508
▁#15019	-12.3508
▁#1514	-12.3508
▁#18402	-12.3508
▁#2442	-12.3508
▁#2574	-12.3508
▁#2593	-12.3508
▁#2609	-12.3508
▁#2650	-12.3508
▁#2710	-12.3508
▁#2716	-12.3508
▁#2735	-12.3508
▁#2743	-12.3508
▁#2777	-12.3508
▁#2785	-12.3508
▁#2797	-12.3508
▁#2800	-12.3508
▁#2812	-12.3508
▁#2840	-12.3508
▁#2907	-12.3508
▁#2988	-12.3508
▁#3011	-12.3508
▁#3016	-12.3508
▁#3074	-12.3508
▁#3080	-12.3508
▁#3111	-12.3508
▁#3236	-12.3508
▁#3249	-12.3508
▁#3687	-12.3508
▁#4170	-12.3508
▁#4321	-12.3508
▁#4886	-12.3508
▁#6698	-12.3508
▁#6803	-12.3508
▁#70572	-12.3508
▁adorable	-12.3508
▁challenge	-12.3508
▁education	-12.3508
▁elevator	-12.3508
▁embarrassé	-12.3508
▁increase	-12.3508
▁joking	-12.3508
▁léger	-12.3508
▁quartier	-12.3508
▁recommandé	-12.3508
▁someday	-12.3508
▁amount	-12.3508
▁banc	-12.3508
▁présence	-12.3508
▁distract	-12.3508
▁tiroir	-12.3508
▁Assey	-12.3508
▁burst	-12.3508
empire	-12.3508
▁repris	-12.3508
▁humid	-12.3508
▁cheese	-12.3508
▁odd	-12.3508
écart	-12.3508
acquérir	-12.3508
▁separate	-12.3508
▁désert	-12.3508
▁season	-12.3509
▁#74140	-12.3509
▁safety	-12.351
▁reconnais	-12.3511
▁#33309	-12.3512
▁passage	-12.3513
▁pity	-12.3513
▁veuillez	-12.3514
▁Passez	-12.3516
▁passait	-12.3517
▁#70112	-12.3519
▁persuaded	-12.3521
▁#76998	-12.3522
▁drawer	-12.3523
auraient	-12.3526
▁falling	-12.3527
▁mangent	-12.3527
▁montra	-12.3534
▁#41422	-12.3536
article	-12.355
▁#3405	-12.3561
▁#1266	-12.3575
▁#5324	-12.3577
▁chasse	-12.3591
bjective	-12.3594
▁rater	-12.3601
▁#13903	-12.3618
▁#5495	-12.3624
▁identi	-12.3626
attendrai	-12.3629
▁#14452	-12.364
ieurs	-12.3663
▁#3659	-12.3672
▁#14408	-12.3683
berg	-12.3697
ssent	-12.3706
▁#13911	-12.3725
▁#12913	-12.3753
▁prenne	-12.376
▁naturel	-12.3772
▁focus	-12.3778
▁puzzle	-12.3778
▁#2480	-12.3778
▁#2489	-12.3778
▁#2585	-12.3778
▁#2715	-12.3778
▁#2757	-12.3778
▁#2791	-12.3778
▁#2802	-12.3778
▁#2818	-12.3778
▁#2950	-12.3778
▁#2963	-12.3778
▁#2964	-12.3778
▁#3013	-12.3778
▁#3020	-12.3778
▁#3073	-12.3778
▁#3100	-12.3778
▁#3189	-12.3778
▁#3190	-12.3778
▁#3999	-12.3778
▁#4338	-12.3778
▁#4601	-12.3778
▁#4603	-12.3778
▁#53936	-12.3778
▁#6807	-12.3778
▁#6825	-12.3778
▁#7752	-12.3778
▁Three	-12.3778
▁Unfortunately	-12.3778
▁alentour	-12.3778
▁anxious	-12.3778
▁audience	-12.3778
▁banana	-12.3778
▁brûle	-12.3778
▁ceinture	-12.3778
▁conférence	-12.3778
▁distingue	-12.3778
▁evidence	-12.3778
▁guéri	-12.3778
▁héros	-12.3778
▁liquide	-12.3778
▁méprise	-12.3778
▁participer	-12.3778
▁progrès	-12.3778
▁remonter	-12.3778
▁survécu	-12.3778
▁suspicious	-12.3778
▁yellow	-12.3778
▁écrivain	-12.3778
▁élégant	-12.3778
▁évident	-12.3778
▁despise	-12.3778
▁deviendra	-12.3778
▁prévoy	-12.3778
▁colline	-12.3778
▁contain	-12.3778
▁craign	-12.3778
▁Parlons	-12.3778
▁shelf	-12.3778
▁matière	-12.3778
▁reviens	-12.3778
▁treize	-12.3778
▁vivons	-12.3778
étoiles	-12.3778
▁castle	-12.3778
▁planned	-12.3778
▁brosse	-12.3778
▁round	-12.3778
▁settle	-12.3778
▁enseigné	-12.3778
▁crack	-12.3779
▁beside	-12.3779
▁volume	-12.3779
▁jaune	-12.3779
épais	-12.378
▁#62756	-12.3782
▁prevented	-12.3783
▁coûté	-12.3785
▁pig	-12.3787
▁relaxed	-12.379
▁magic	-12.3792
▁#3596	-12.38
▁#13923	-12.3808
▁#3386	-12.3827
▁mordu	-12.3843
attention	-12.3847
Marie	-12.3847
▁retourné	-12.3873
▁#36596	-12.3885
▁#24071	-12.3886
ouvri	-12.3896
▁somme	-12.3901
▁#3264	-12.3918
pite	-12.392
▁#31511	-12.3921
▁#13951	-12.3938
▁option	-12.397
endance	-12.3976
▁reviendra	-12.3984
▁weigh	-12.4008
▁#14032	-12.4043
▁cloth	-12.4052
▁trembl	-12.4055
▁recommande	-12.4056
incident	-12.4056
misunderstanding	-12.4056
▁#2413	-12.4056
▁#25482	-12.4056
▁#2551	-12.4056
▁#26412	-12.4056
▁#2665	-12.4056
▁#2688	-12.4056
▁#2694	-12.4056
▁#2700	-12.4056
▁#2706	-12.4056
▁#2724	-12.4056
▁#2741	-12.4056
▁#2794	-12.4056
▁#2834	-12.4056
▁#2836	-12.4056
▁#2903	-12.4056
▁#2945	-12.4056
▁#2961	-12.4056
▁#2987	-12.4056
▁#3018	-12.4056
▁#3035	-12.4056
▁#3081	-12.4056
▁#3112	-12.4056
▁#3208	-12.4056
▁#3339	-12.4056
▁#3684	-12.4056
▁#4888	-12.4056
▁#6679	-12.4056
▁#6885	-12.4056
▁chaussettes	-12.4056
▁compose	-12.4056
▁cuisinier	-12.4056
▁escaliers	-12.4056
▁formulaire	-12.4056
▁locuteur	-12.4056
▁marriage	-12.4056
▁retrouver	-12.4056
▁skinny	-12.4056
▁uniform	-12.4056
▁bullet	-12.4056
▁eventually	-12.4056
▁prénom	-12.4056
▁quantité	-12.4056
▁Croyez	-12.4056
▁détruit	-12.4056
▁nowhere	-12.4056
▁wealth	-12.4056
▁general	-12.4056
▁paquet	-12.4056
▁parlait	-12.4056
▁studies	-12.4056
▁grab	-12.4056
▁retiré	-12.4056
▁impoli	-12.4056
▁rigol	-12.4056
▁civil	-12.4056
▁illness	-12.4056
▁menace	-12.4056
▁poker	-12.4057
▁#78170	-12.4057
▁friendship	-12.4057
▁répondit	-12.4058
▁amené	-12.4058
▁rarely	-12.4059
▁professionnel	-12.406
▁beauté	-12.4061
▁tongue	-12.4063
▁deny	-12.4068
▁crise	-12.4069
GP	-12.407
▁plaisanterie	-12.4071
▁fallen	-12.4072
▁#4821	-12.4072
▁#13956	-12.4073
▁disiez	-12.4075
▁#33339	-12.4077
jury	-12.4082
▁kick	-12.4083
▁#2911	-12.4089
appelez	-12.4093
▁#4701	-12.4094
▁Gue	-12.4098
evee	-12.4113
achèterai	-12.4115
attendait	-12.4117
▁vérifié	-12.4123
agoon	-12.4135
▁#31515	-12.4145
▁frapper	-12.4164
▁tenter	-12.4189
▁#53996	-12.4195
▁#18461	-12.42
▁menu	-12.4222
▁#25494	-12.4229
▁#4275	-12.425
neko	-12.4254
▁revienne	-12.4255
▁#18004	-12.4259
▁pousse	-12.427
▁dépl	-12.427
▁#5876	-12.427
▁#3914	-12.4286
abandonne	-12.4286
▁toilet	-12.4289
▁#26446	-12.429
rava	-12.4295
▁raconte	-12.4298
▁#25495	-12.4318
▁bouge	-12.4336
Allemagne	-12.4341
ajouter	-12.4341
illégal	-12.4341
▁#1516	-12.4341
▁#2605	-12.4341
▁#2608	-12.4341
▁#2639	-12.4341
▁#2676	-12.4341
▁#27134	-12.4341
▁#2725	-12.4341
▁#2770	-12.4341
▁#2775	-12.4341
▁#2808	-12.4341
▁#2935	-12.4341
▁#3005	-12.4341
▁#3036	-12.4341
▁#3046	-12.4341
▁#3055	-12.4341
▁#3082	-12.4341
▁#3182	-12.4341
▁#3332	-12.4341
▁#3416	-12.4341
▁#3989	-12.4341
▁#4600	-12.4341
▁#4885	-12.4341
▁#6666	-12.4341
▁Malheureusement	-12.4341
▁School	-12.4341
▁absorb	-12.4341
▁amélioré	-12.4341
▁birth	-12.4341
▁confond	-12.4341
▁crème	-12.4341
▁election	-12.4341
▁false	-12.4341
▁familier	-12.4341
▁fausse	-12.4341
▁fumée	-12.4341
▁maître	-12.4341
▁mondiale	-12.4341
▁pleuvra	-12.4341
▁rough	-12.4341
▁rôle	-12.4341
▁strength	-12.4341
▁#1435	-12.4341
▁#2564	-12.4341
▁#2684	-12.4341
▁#2996	-12.4341
▁#4606	-12.4341
▁#6352	-12.4341
▁#6356	-12.4341
▁Essayons	-12.4341
▁Water	-12.4341
▁blonde	-12.4341
▁génie	-12.4341
▁néglige	-12.4341
▁raconté	-12.4341
▁sachiez	-12.4341
▁drogue	-12.4341
▁reliable	-12.4341
▁baiser	-12.4341
▁nuages	-12.4341
▁Speak	-12.4341
▁income	-12.4341
▁commettre	-12.4341
▁effective	-12.4342
▁value	-12.4342
▁sauce	-12.4342
▁percent	-12.4342
chauffe	-12.4343
▁#2895	-12.4343
▁emprunté	-12.4343
▁#74590	-12.4345
▁spare	-12.4346
▁actor	-12.4347
▁suffering	-12.4348
▁persuader	-12.4349
▁éloigné	-12.435
▁relie	-12.4352
▁deviner	-12.4353
▁naturelle	-12.4353
▁basse	-12.4355
▁Viv	-12.4355
epo	-12.4355
▁#183838	-12.4356
▁dors	-12.4358
▁Gra	-12.436
▁#32297	-12.4364
▁#1095	-12.439
emme	-12.4391
▁#24245	-12.4394
honnêteté	-12.4396
▁concentrate	-12.4406
Visi	-12.4408
▁#25657	-12.4416
auteur	-12.4418
▁accompli	-12.4451
améliorer	-12.4459
▁Promet	-12.4463
Desc	-12.4463
étaient	-12.4466
▁#4895	-12.4527
▁pardon	-12.4528
Lag	-12.4555
▁#5663	-12.456
▁fill	-12.4566
voted	-12.4569
▁#3643	-12.457
rieu	-12.4633
obéir	-12.4633
▁démarr	-12.4634
▁field	-12.4635
accueil	-12.4635
athematics	-12.4635
scription	-12.4635
électricité	-12.4635
▁#184549	-12.4635
▁#23295	-12.4635
▁#2514	-12.4635
▁#2555	-12.4635
▁#27137	-12.4635
▁#2746	-12.4635
▁#2786	-12.4635
▁#2789	-12.4635
▁#2798	-12.4635
▁#2923	-12.4635
▁#3021	-12.4635
▁#3029	-12.4635
▁#3044	-12.4635
▁#3056	-12.4635
▁#3061	-12.4635
▁#3090	-12.4635
▁#3105	-12.4635
▁#3136	-12.4635
▁#3146	-12.4635
▁#3206	-12.4635
▁#3239	-12.4635
▁#3246	-12.4635
▁#3247	-12.4635
▁#32581	-12.4635
▁#36531	-12.4635
▁#53911	-12.4635
▁Russia	-12.4635
▁Smok	-12.4635
▁approve	-12.4635
▁bougie	-12.4635
▁compliment	-12.4635
▁desperate	-12.4635
▁dîné	-12.4635
▁fassions	-12.4635
▁hammer	-12.4635
▁merveilleuse	-12.4635
▁physic	-12.4635
▁publié	-12.4635
▁religion	-12.4635
▁respond	-12.4635
▁surface	-12.4635
▁yourselves	-12.4635
▁batterie	-12.4635
▁passengers	-12.4635
▁posséd	-12.4635
▁witness	-12.4635
ncidence	-12.4635
▁author	-12.4635
▁taxes	-12.4635
attaque	-12.4635
▁employee	-12.4636
▁Grand	-12.4636
▁equal	-12.4636
▁fog	-12.4636
▁rappelez	-12.4636
▁détendu	-12.4636
▁serré	-12.4636
annonce	-12.4637
▁compare	-12.4637
▁theater	-12.4637
▁load	-12.4637
▁beauty	-12.4638
▁loupé	-12.464
▁#744533	-12.464
▁wounded	-12.464
▁stealing	-12.464
▁desert	-12.4641
▁#45474	-12.4643
▁unusual	-12.4645
▁install	-12.4649
▁victim	-12.4661
mener	-12.4687
▁#13963	-12.4712
▁reviendrai	-12.4712
▁#4805	-12.4713
▁#4303	-12.4719
invent	-12.4734
▁subi	-12.4764
approch	-12.4779
▁#32266	-12.4789
▁#18036	-12.4792
▁#2894	-12.4817
▁dollar	-12.4854
▁gate	-12.486
▁remport	-12.4875
▁#1101	-12.4911
▁prevent	-12.4933
▁sweat	-12.4934
hoose	-12.4935
▁differ	-12.4937
▁dépos	-12.4938
▁#2612	-12.4938
▁#2681	-12.4938
▁#2939	-12.4938
▁remarqua	-12.4938
annuler	-12.4938
honneur	-12.4938
océan	-12.4938
▁#2320	-12.4938
▁#2446	-12.4938
▁#2481	-12.4938
▁#2513	-12.4938
▁#2525	-12.4938
▁#25489	-12.4938
▁#2558	-12.4938
▁#2559	-12.4938
▁#2668	-12.4938
▁#2749	-12.4938
▁#2814	-12.4938
▁#2909	-12.4938
▁#2969	-12.4938
▁#2971	-12.4938
▁#3015	-12.4938
▁#3038	-12.4938
▁#3041	-12.4938
▁#3062	-12.4938
▁#3076	-12.4938
▁#3499	-12.4938
▁#3527	-12.4938
▁#4331	-12.4938
▁#6359	-12.4938
▁Appelez	-12.4938
▁Cherche	-12.4938
▁budget	-12.4938
▁captain	-12.4938
▁coincidence	-12.4938
▁commercial	-12.4938
▁fifteen	-12.4938
▁fifty	-12.4938
▁légère	-12.4938
▁méthode	-12.4938
▁naissance	-12.4938
▁paresseux	-12.4938
▁piège	-12.4938
▁politics	-12.4938
▁properly	-12.4938
▁quotidiennement	-12.4938
▁recevoir	-12.4938
▁reservation	-12.4938
▁serpent	-12.4938
▁teenager	-12.4938
▁temple	-12.4938
▁vivait	-12.4938
▁brown	-12.4938
▁committed	-12.4938
▁error	-12.4938
▁firm	-12.4938
Expert	-12.4938
▁parlais	-12.4938
▁interdit	-12.4939
▁bound	-12.4939
▁fake	-12.4939
▁ailleurs	-12.4939
▁clouds	-12.4939
▁fonctionné	-12.4939
▁dumb	-12.4939
▁dozen	-12.4939
▁powerful	-12.4939
▁allongé	-12.4939
noncé	-12.4939
▁lampe	-12.494
▁gentillesse	-12.494
▁menteuse	-12.494
▁happier	-12.494
▁Avant	-12.4942
assiette	-12.4943
▁knocked	-12.4944
▁deeply	-12.4944
▁farmer	-12.4944
▁puissant	-12.4945
hman	-12.4947
▁plants	-12.4948
▁belt	-12.4949
offrir	-12.4951
▁import	-12.4956
▁#995	-12.4962
▁#25465	-12.4978
▁commentaire	-12.4997
▁passion	-12.5024
▁#15106	-12.5053
sentait	-12.5076
▁#228825	-12.5105
▁#39234	-12.5108
▁#3883	-12.5176
▁fashion	-12.5213
▁#78113	-12.5235
▁inquiét	-12.524
▁#2633	-12.5251
▁#2726	-12.5251
instrument	-12.5251
évanoui	-12.5251
▁#1431	-12.5251
▁#18016	-12.5251
▁#2521	-12.5251
▁#2606	-12.5251
▁#2625	-12.5251
▁#26488	-12.5251
▁#2671	-12.5251
▁#2795	-12.5251
▁#2796	-12.5251
▁#2921	-12.5251
▁#2922	-12.5251
▁#3063	-12.5251
▁#3084	-12.5251
▁#3095	-12.5251
▁#3149	-12.5251
▁#3176	-12.5251
▁#3187	-12.5251
▁#32598	-12.5251
▁#3411	-12.5251
▁#3529	-12.5251
▁#4644	-12.5251
▁#6664	-12.5251
▁#6678	-12.5251
▁bargain	-12.5251
▁capitaine	-12.5251
▁chandail	-12.5251
▁committee	-12.5251
▁confortable	-12.5251
▁constamment	-12.5251
▁destroyed	-12.5251
▁débrouillé	-12.5251
▁déterminé	-12.5251
▁détonation	-12.5251
▁fichier	-12.5251
▁genius	-12.5251
▁handsome	-12.5251
▁mouillé	-12.5251
▁pickpocket	-12.5251
▁poussé	-12.5251
▁relieved	-12.5251
▁remède	-12.5251
▁représent	-12.5251
▁réaliser	-12.5251
▁smiling	-12.5251
▁stories	-12.5251
▁struck	-12.5251
▁témoin	-12.5251
▁épousé	-12.5251
automne	-12.5251
sensitive	-12.5251
▁Price	-12.5251
▁apparu	-12.5251
▁régler	-12.5251
▁météo	-12.5251
▁dislike	-12.5251
▁charmant	-12.5251
▁register	-12.5251
▁nôtre	-12.5251
▁réside	-12.5251
▁louer	-12.5251
▁relative	-12.5251
▁chauffeur	-12.5251
▁rassembl	-12.5251
▁applie	-12.5251
▁requis	-12.5251
▁socks	-12.5251
▁cheated	-12.5252
▁fiable	-12.5252
▁mourut	-12.5252
▁directement	-12.5253
▁package	-12.5253
▁cherché	-12.5253
▁majeur	-12.5253
▁troisième	-12.5254
▁tiendra	-12.5254
actrice	-12.5254
▁pénétrer	-12.5254
▁consulter	-12.5255
▁connaissent	-12.5256
▁hauteur	-12.5257
▁#45419	-12.5259
▁étendu	-12.5262
▁noyé	-12.5262
particulièrement	-12.5264
▁mentionné	-12.5272
▁#13162	-12.5275
▁#78869	-12.5281
▁construi	-12.5291
▁#2596	-12.5307
▁péri	-12.5316
▁#4973	-12.5316
apporte	-12.5338
issant	-12.5368
▁successful	-12.5372
▁#53995	-12.5405
▁#31233	-12.5407
▁#4635	-12.5415
avantage	-12.5417
▁princess	-12.5428
sept	-12.546
important	-12.5463
▁échang	-12.5465
loqu	-12.5498
▁#26455	-12.5511
▁tendu	-12.5517
▁#2535	-12.5542
▁steal	-12.5569
▁consult	-12.5569
▁loup	-12.5573
ollow	-12.5573
▁#2967	-12.5574
applique	-12.5574
endormir	-12.5574
espace	-12.5574
horloge	-12.5574
ocracy	-12.5574
évidence	-12.5574
▁#1448	-12.5574
▁#23296	-12.5574
▁#2495	-12.5574
▁#2526	-12.5574
▁#2614	-12.5574
▁#2626	-12.5574
▁#26484	-12.5574
▁#2677	-12.5574
▁#2699	-12.5574
▁#2729	-12.5574
▁#2736	-12.5574
▁#3042	-12.5574
▁#3051	-12.5574
▁#3054	-12.5574
▁#3078	-12.5574
▁#3175	-12.5574
▁#3198	-12.5574
▁#3225	-12.5574
▁#32597	-12.5574
▁#3296	-12.5574
▁#35267	-12.5574
▁#6351	-12.5574
▁#6728	-12.5574
▁#6761	-12.5574
▁#760	-12.5574
▁Oublie	-12.5574
▁Tomorrow	-12.5574
▁bottom	-12.5574
▁brouillard	-12.5574
▁camarade	-12.5574
▁chevaux	-12.5574
▁delayed	-12.5574
▁diplomat	-12.5574
▁douzaine	-12.5574
▁défaut	-12.5574
▁engaged	-12.5574
▁entraîné	-12.5574
▁hurler	-12.5574
▁liberté	-12.5574
▁malentendu	-12.5574
▁planète	-12.5574
▁scène	-12.5574
▁unlucky	-12.5574
▁éclata	-12.5574
undown	-12.5574
▁eleven	-12.5574
▁barking	-12.5574
▁mobile	-12.5574
Nick	-12.5574
▁grossier	-12.5574
horaire	-12.5574
▁Alice	-12.5574
▁baked	-12.5574
▁soulagé	-12.5574
▁malheureuse	-12.5574
▁constant	-12.5574
▁connaissons	-12.5574
▁terms	-12.5574
▁bench	-12.5574
▁claim	-12.5574
▁planted	-12.5574
▁directeur	-12.5574
abeille	-12.5574
aplan	-12.5575
▁complaints	-12.5575
▁virer	-12.5575
▁ferons	-12.5575
▁proverb	-12.5575
▁protection	-12.5575
teins	-12.5576
▁champion	-12.5576
▁égo	-12.5576
▁kindness	-12.5577
Igno	-12.5578
▁mince	-12.5581
▁inventé	-12.5582
▁déten	-12.5587
▁version	-12.5591
▁retira	-12.5601
▁Ri	-12.5603
0,000	-12.5693
▁#9655	-12.5699
▁tourné	-12.5708
brise	-12.5733
▁#6668	-12.5787
neuf	-12.5819
▁#29545	-12.582
Italie	-12.5872
▁ramen	-12.5881
▁dye	-12.5884
▁prepare	-12.5895
▁knock	-12.5901
▁electric	-12.5907
▁pareil	-12.5907
Apoll	-12.5907
agissait	-12.5907
ennuyer	-12.5907
inconnu	-12.5907
opportunité	-12.5907
▁#1505	-12.5907
▁#18456	-12.5907
▁#24115	-12.5907
▁#2638	-12.5907
▁#2691	-12.5907
▁#2717	-12.5907
▁#2783	-12.5907
▁#2841	-12.5907
▁#2902	-12.5907
▁#2908	-12.5907
▁#2937	-12.5907
▁#3083	-12.5907
▁#3242	-12.5907
▁#33296	-12.5907
▁#3384	-12.5907
▁#4607	-12.5907
▁#6667	-12.5907
▁#6765	-12.5907
▁Africa	-12.5907
▁Chicago	-12.5907
▁Lincoln	-12.5907
▁considère	-12.5907
▁cérémonie	-12.5907
▁déclare	-12.5907
▁déroule	-12.5907
▁experiment	-12.5907
▁fourchette	-12.5907
▁fûmes	-12.5907
▁password	-12.5907
▁pollution	-12.5907
▁produise	-12.5907
▁snake	-12.5907
▁stunned	-12.5907
▁threatened	-12.5907
▁uncomfortable	-12.5907
▁unexpected	-12.5907
▁#2607	-12.5907
▁#2636	-12.5907
▁#2655	-12.5907
▁#26635	-12.5907
▁#2732	-12.5907
▁#2773	-12.5907
▁#2838	-12.5907
▁#2842	-12.5907
▁#2847	-12.5907
▁#3938	-12.5907
▁déroulé	-12.5907
▁opposé	-12.5907
▁prononcer	-12.5907
▁robot	-12.5907
▁thick	-12.5907
▁volonté	-12.5907
impôts	-12.5907
▁transport	-12.5907
▁pianist	-12.5907
▁tapis	-12.5907
▁Tourne	-12.5907
▁shall	-12.5907
▁gueule	-12.5907
▁addict	-12.5907
▁assuré	-12.5907
▁sacrifi	-12.5907
▁measure	-12.5907
▁relationship	-12.5907
▁begun	-12.5907
▁itself	-12.5907
▁métro	-12.5907
▁logique	-12.5907
loyal	-12.5907
▁pants	-12.5907
Baby	-12.5908
▁Assure	-12.5908
▁appearance	-12.5908
▁Italy	-12.5908
▁slippe	-12.5908
▁#74108	-12.5908
▁loose	-12.5909
▁sieste	-12.5909
▁teint	-12.5909
▁replace	-12.591
▁Cats	-12.591
▁patronne	-12.5911
regis	-12.5911
▁sourd	-12.5912
▁ferma	-12.5912
▁deaf	-12.5914
dépendant	-12.5922
active	-12.5931
▁data	-12.5945
▁situe	-12.5952
▁#26465	-12.5978
▁#229122	-12.5992
▁pension	-12.6005
▁cave	-12.6013
▁#823	-12.6015
▁poursuivi	-12.6028
▁paniqu	-12.6034
▁#183954	-12.6048
▁#183964	-12.6078
▁#1510	-12.6123
▁choc	-12.6125
excuse	-12.6126
▁gym	-12.6135
lung	-12.6189
nybody	-12.6208
▁chanta	-12.6233
▁shock	-12.6246
▁build	-12.6246
▁actuelle	-12.6249
▁develop	-12.6252
oppose	-12.6252
▁#1507	-12.6252
▁#25487	-12.6252
▁#2703	-12.6252
▁#27130	-12.6252
▁#2771	-12.6252
▁#2803	-12.6252
▁#2942	-12.6252
▁#2970	-12.6252
▁#3995	-12.6252
▁#4323	-12.6252
▁#6805	-12.6252
▁#6827	-12.6252
▁#6888	-12.6252
▁#9600	-12.6252
▁Frankly	-12.6252
▁Retourne	-12.6252
▁ceremony	-12.6252
▁cherchais	-12.6252
▁conference	-12.6252
▁corriger	-12.6252
▁courriel	-12.6252
▁cuillère	-12.6252
▁departure	-12.6252
▁délicieux	-12.6252
▁economy	-12.6252
▁emporté	-12.6252
▁excitant	-12.6252
▁fleuve	-12.6252
▁flexible	-12.6252
▁generous	-12.6252
▁incorrect	-12.6252
▁international	-12.6252
▁intersection	-12.6252
▁nonsense	-12.6252
▁preparing	-12.6252
▁retenir	-12.6252
▁scolded	-12.6252
▁similaire	-12.6252
▁statue	-12.6252
▁symbol	-12.6252
▁thirteen	-12.6252
▁valuable	-12.6252
▁acquaint	-12.6252
▁grossière	-12.6252
▁reprend	-12.6252
▁retenu	-12.6252
▁swear	-12.6252
Afrique	-12.6252
▁croyez	-12.6252
▁ocean	-12.6252
▁qualité	-12.6252
▁shame	-12.6252
▁tentative	-12.6252
▁glance	-12.6252
▁honor	-12.6252
▁passagers	-12.6252
▁demeure	-12.6252
▁notebook	-12.6252
▁resist	-12.6252
▁performance	-12.6252
▁spoon	-12.6252
▁degree	-12.6252
observa	-12.6252
▁bitten	-12.6252
▁shave	-12.6252
▁insane	-12.6252
pargne	-12.6252
observe	-12.6252
▁pound	-12.6253
Haut	-12.6254
Azer	-12.6254
▁participate	-12.6259
resque	-12.6266
▁cuit	-12.6306
araly	-12.6315
▁tourna	-12.6317
▁avisé	-12.6331
▁injuste	-12.639
▁élect	-12.6399
link	-12.6403
aboie	-12.6407
▁timid	-12.6459
▁peign	-12.6478
▁opér	-12.6501
▁préoccupe	-12.6556
ssied	-12.656
inconvénient	-12.6572
took	-12.6576
Will	-12.6576
▁sauve	-12.6595
cinq	-12.6599
versé	-12.6601
▁arrest	-12.6603
tudie	-12.6608
Espagne	-12.6609
definitely	-12.6609
individu	-12.6609
éléphant	-12.6609
▁#23293	-12.6609
▁#25485	-12.6609
▁#25488	-12.6609
▁#26481	-12.6609
▁#26482	-12.6609
▁#32585	-12.6609
▁Facebook	-12.6609
▁Promise	-12.6609
▁Think	-12.6609
▁affamé	-12.6609
▁announce	-12.6609
▁bluff	-12.6609
▁chèque	-12.6609
▁conducteur	-12.6609
▁consacré	-12.6609
▁curtain	-12.6609
▁délicieuse	-12.6609
▁hamburger	-12.6609
▁luggage	-12.6609
▁meubles	-12.6609
▁miroir	-12.6609
▁mirror	-12.6609
▁mouchoir	-12.6609
▁physique	-12.6609
▁prévenir	-12.6609
▁ridicule	-12.6609
▁réservation	-12.6609
▁sympathique	-12.6609
▁tattoo	-12.6609
▁traduction	-12.6609
▁téléphoné	-12.6609
▁écoulé	-12.6609
▁vertige	-12.6609
▁Canadien	-12.6609
▁suivrai	-12.6609
▁selfie	-12.6609
▁Listen	-12.6609
▁prenons	-12.6609
▁travaillons	-12.6609
▁solaire	-12.6609
▁skirt	-12.6609
▁marteau	-12.6609
▁réduir	-12.6609
▁Devine	-12.6609
▁centaine	-12.6609
▁exprès	-12.6609
▁Porte	-12.661
▁pleurait	-12.661
▁silly	-12.661
▁construction	-12.661
▁acteur	-12.6612
▁muscle	-12.6612
existence	-12.6614
▁atteign	-12.6616
▁envisager	-12.6626
▁commenc	-12.6638
nails	-12.6664
arrivai	-12.6685
▁prince	-12.6773
▁#228823	-12.6821
▁#204439	-12.6872
ilom	-12.69
shar	-12.6915
ably	-12.6918
▁effect	-12.6972
▁wound	-12.6973
▁Essaye	-12.6974
alphabet	-12.6979
écrivi	-12.6979
▁#25483	-12.6979
▁baleine	-12.6979
▁déclara	-12.6979
▁knowledge	-12.6979
▁material	-12.6979
▁millier	-12.6979
▁mètres	-12.6979
▁nettoyé	-12.6979
▁plafond	-12.6979
▁rabbit	-12.6979
▁research	-12.6979
▁ressources	-12.6979
▁réfrigérateur	-12.6979
▁secrète	-12.6979
▁supérieur	-12.6979
▁surprenant	-12.6979
dalism	-12.6979
▁#26489	-12.6979
▁#32011	-12.6979
▁récupérer	-12.6979
abular	-12.6979
▁funeral	-12.6979
Dark	-12.6979
qualified	-12.6979
▁Papa	-12.6979
▁concours	-12.6979
▁dumped	-12.6979
▁retrouvé	-12.6979
enverrai	-12.6979
▁adapt	-12.6979
▁distrait	-12.6979
▁récolte	-12.6979
▁textbook	-12.6979
▁apology	-12.6979
▁positive	-12.6979
▁sucré	-12.6979
▁Pardon	-12.6979
▁potatoes	-12.6979
▁electricity	-12.698
▁gants	-12.698
▁Saint	-12.698
▁Bonne	-12.698
▁conserve	-12.698
▁flood	-12.698
▁soudainement	-12.698
▁coward	-12.6981
▁accompanie	-12.6981
▁venait	-12.6981
▁rattraper	-12.6981
▁#73677	-12.6982
▁musicien	-12.6998
omen	-12.7005
▁mark	-12.7011
Mala	-12.7024
embête	-12.7036
▁Seul	-12.7056
▁décid	-12.7082
barb	-12.7116
barr	-12.7129
▁comprenne	-12.7162
prennent	-12.7205
accomplir	-12.7216
▁chic	-12.726
▁vérifi	-12.7266
Q	-12.7325
▁possibl	-12.7334
▁pénétr	-12.736
▁entière	-12.7362
humour	-12.7364
▁#25480	-12.7364
▁#27133	-12.7364
▁#38486	-12.7364
▁bleeding	-12.7364
▁bruyant	-12.7364
▁clôture	-12.7364
▁composition	-12.7364
▁contraire	-12.7364
▁cottage	-12.7364
▁disgusting	-12.7364
▁domicile	-12.7364
▁empêché	-12.7364
▁fiancé	-12.7364
▁financial	-12.7364
▁garanti	-12.7364
▁gloves	-12.7364
▁gêné	-12.7364
▁jogging	-12.7364
▁mystère	-12.7364
▁pleuvait	-12.7364
▁politician	-12.7364
▁published	-12.7364
▁période	-12.7364
▁ralenti	-12.7364
▁refrigerator	-12.7364
▁significant	-12.7364
▁signification	-12.7364
▁sophisticated	-12.7364
▁suggéré	-12.7364
▁translation	-12.7364
▁#23251	-12.7364
▁Check	-12.7364
▁achevé	-12.7364
▁correspond	-12.7364
▁frustrat	-12.7364
▁reserve	-12.7364
▁supper	-12.7364
▁eager	-12.7364
▁renversé	-12.7364
▁côte	-12.7364
▁haircut	-12.7364
▁connait	-12.7364
▁spoil	-12.7364
▁sauté	-12.7364
▁menacé	-12.7364
Peter	-12.7364
obert	-12.7364
assassin	-12.7364
▁quasi	-12.7364
▁aimable	-12.7364
negative	-12.7364
▁désaccord	-12.7364
▁effectuer	-12.7364
▁accomplish	-12.7364
▁subway	-12.7364
▁secours	-12.7364
ricci	-12.7364
monkey	-12.7364
▁granted	-12.7364
▁russe	-12.7364
▁entrance	-12.7364
▁hello	-12.7365
▁gliss	-12.7365
▁Valentine	-12.7365
▁chanteuse	-12.7365
▁imita	-12.7366
▁connection	-12.7366
▁niveau	-12.7366
encre	-12.7367
Love	-12.7367
▁investigation	-12.7367
enfuir	-12.7367
▁acheta	-12.7371
▁étasunien	-12.7372
▁pardonné	-12.7388
▁figur	-12.7391
rSh	-12.7399
drew	-12.7401
▁#233012	-12.7408
▁valid	-12.7438
pressed	-12.7438
rushed	-12.7445
▁#229119	-12.7459
▁comprendrai	-12.7462
hoisissez	-12.7501
stien	-12.7536
▁saura	-12.7577
▁poursuiv	-12.762
▁enfui	-12.7648
explique	-12.7662
nything	-12.7722
▁déjeune	-12.7754
▁alcohol	-12.7754
▁fonction	-12.7761
activité	-12.7764
▁#32586	-12.7764
▁#32599	-12.7764
▁Drink	-12.7764
▁Fumer	-12.7764
▁applaudi	-12.7764
▁divorcé	-12.7764
▁dérobé	-12.7764
▁fortunate	-12.7764
▁fraîche	-12.7764
▁industry	-12.7764
▁pleuve	-12.7764
▁ridiculous	-12.7764
▁square	-12.7764
▁stretch	-12.7764
▁tatouage	-12.7764
essentiel	-12.7764
folded	-12.7764
▁#27132	-12.7764
▁attaqué	-12.7764
▁baissé	-12.7764
▁impuissant	-12.7764
▁okay	-12.7764
▁quarante	-12.7764
▁soupçon	-12.7764
▁étonné	-12.7764
▁actress	-12.7764
▁cheek	-12.7764
▁Enfin	-12.7764
▁reduce	-12.7764
▁wild	-12.7764
▁réduit	-12.7764
▁battle	-12.7764
▁average	-12.7764
▁Find	-12.7764
▁alike	-12.7764
▁slice	-12.7764
▁foudre	-12.7764
▁authority	-12.7764
▁Retire	-12.7764
▁cough	-12.7764
▁invented	-12.7764
attente	-12.7765
▁flirt	-12.7765
▁nearby	-12.7765
▁Buy	-12.7765
▁India	-12.7765
▁revu	-12.7765
▁#78716	-12.7767
lova	-12.7776
grant	-12.7776
Europe	-12.7824
▁#229117	-12.7864
agisse	-12.7919
▁ressembl	-12.7919
▁#155353	-12.7926
▁#197261	-12.7955
onnèrent	-12.797
▁#109650	-12.7979
nyone	-12.8028
▁#204774	-12.8046
embrasse	-12.8086
épa	-12.8088
riva	-12.8092
▁command	-12.8096
▁admis	-12.8172
▁scratch	-12.818
Nucle	-12.818
absurd	-12.818
interrompre	-12.818
minister	-12.818
▁#23232	-12.818
▁#32590	-12.818
▁#32591	-12.818
▁Heureusement	-12.818
▁Président	-12.818
▁bucket	-12.818
▁cardiaque	-12.818
▁ciseaux	-12.818
▁emplettes	-12.818
▁fantastique	-12.818
▁marchandises	-12.818
▁optimiste	-12.818
▁promotion	-12.818
▁préoccupé	-12.818
▁saxophone	-12.818
▁scissors	-12.818
▁serrure	-12.818
▁strike	-12.818
▁throat	-12.818
▁tracasse	-12.818
▁voyagé	-12.818
▁végétarien	-12.818
▁véhicule	-12.818
▁électrique	-12.818
▁scolaire	-12.8181
▁yelling	-12.8181
▁scandal	-12.8181
▁gérant	-12.8181
espear	-12.8181
▁commit	-12.8181
▁mystery	-12.8181
▁buvez	-12.8181
▁temper	-12.8181
▁humor	-12.8181
allumette	-12.8181
▁risqué	-12.8181
▁maigre	-12.8181
▁langage	-12.8181
▁Change	-12.8181
▁below	-12.8181
exagér	-12.8181
▁noisy	-12.8181
pulse	-12.8181
▁délai	-12.8181
▁unfair	-12.8181
▁gamin	-12.8181
▁Coupe	-12.8181
▁related	-12.8181
▁jerk	-12.8181
emember	-12.8182
▁#10734	-12.8183
▁communiqu	-12.8184
▁score	-12.8188
expose	-12.8188
▁debate	-12.8193
ignorance	-12.8198
▁colle	-12.8208
utilité	-12.8251
What	-12.8282
▁#192340	-12.8375
▁#197264	-12.8378
▁origin	-12.8416
accepte	-12.8419
▁frappe	-12.8446
▁gagn	-12.8463
affecte	-12.8583
absente	-12.8591
insulte	-12.8598
araignée	-12.8615
énigme	-12.8615
▁#14050	-12.8615
▁#26487	-12.8615
▁#26633	-12.8615
▁#32010	-12.8615
▁#66712	-12.8615
▁abattu	-12.8615
▁baggage	-12.8615
▁blanket	-12.8615
▁bonjour	-12.8615
▁chirurgie	-12.8615
▁citizen	-12.8615
▁curieuse	-12.8615
▁déterminer	-12.8615
▁enemies	-12.8615
▁fantastic	-12.8615
▁furieux	-12.8615
▁félicit	-12.8615
▁licencié	-12.8615
▁lèvres	-12.8615
▁minimum	-12.8615
▁moustique	-12.8615
▁parcourir	-12.8615
▁perplexe	-12.8615
▁persuadé	-12.8615
▁placard	-12.8615
▁rafraîchi	-12.8615
▁recommanda	-12.8615
▁regular	-12.8615
▁renvoyé	-12.8615
▁révéla	-12.8615
▁security	-12.8615
▁selfish	-12.8615
▁soigneusement	-12.8615
▁soulevé	-12.8615
▁souvenez	-12.8615
▁sévère	-12.8615
▁target	-12.8615
▁technique	-12.8615
▁transform	-12.8615
▁vegetarian	-12.8615
▁whale	-12.8615
▁éclaté	-12.8615
▁approprié	-12.8615
▁croyait	-12.8615
▁divide	-12.8615
▁galerie	-12.8615
▁miserable	-12.8615
▁ordonné	-12.8615
▁reconnaît	-12.8615
envoya	-12.8615
▁simply	-12.8615
▁stopping	-12.8615
▁survivors	-12.8615
▁heurté	-12.8615
▁circle	-12.8615
▁répand	-12.8615
▁wreck	-12.8615
▁panier	-12.8616
▁lancé	-12.8616
▁joie	-12.8616
▁fuite	-12.8616
▁diriez	-12.8616
▁commerce	-12.8616
▁pitch	-12.8629
ugis	-12.8637
adorai	-12.8639
allonge	-12.8646
alama	-12.8658
éprouve	-12.8717
▁économis	-12.8718
breaking	-12.8731
intéressant	-12.8756
having	-12.8757
▁#239632	-12.8803
origine	-12.8846
▁#228376	-12.89
▁Choisis	-12.8918
▁#202634	-12.8929
viendrez	-12.9051
Valentin	-12.9069
▁Raconte	-12.907
▁fauché	-12.907
▁kidnapp	-12.907
▁propriétaire	-12.907
accurate	-12.907
effrayant	-12.907
embrassa	-12.907
emotional	-12.907
implique	-12.907
événement	-12.907
▁#184548	-12.907
▁#23228	-12.907
▁#24112	-12.907
▁#26419	-12.907
▁#32589	-12.907
▁#67606	-12.907
▁Attention	-12.907
▁Summer	-12.907
▁ambitieux	-12.907
▁appropriate	-12.907
▁automobile	-12.907
▁caméra	-12.907
▁cautious	-12.907
▁changing	-12.907
▁conséquence	-12.907
▁cuisinière	-12.907
▁diamant	-12.907
▁déclaré	-12.907
▁délicat	-12.907
▁fainéant	-12.907
▁kilomètres	-12.907
▁maternelle	-12.907
▁modèle	-12.907
▁mosquito	-12.907
▁mouvement	-12.907
▁pharmacie	-12.907
▁piqué	-12.907
▁poignée	-12.907
▁procurer	-12.907
▁rubb	-12.907
▁rêvé	-12.907
▁siècle	-12.907
▁stubborn	-12.907
▁sunglasses	-12.907
▁surrounded	-12.907
▁terribly	-12.907
▁utilisa	-12.907
▁écrasé	-12.907
▁suicidé	-12.907
▁étroit	-12.907
associ	-12.907
autorité	-12.907
▁effectué	-12.907
▁natale	-12.907
▁sauva	-12.907
▁contient	-12.907
▁juice	-12.907
pglo	-12.907
▁Lisez	-12.907
▁bribe	-12.907
▁coutume	-12.907
▁carpet	-12.907
▁bowl	-12.907
▁lancer	-12.907
▁chute	-12.907
▁pleura	-12.9071
▁skate	-12.9072
▁emmené	-12.9072
▁goutte	-12.9072
▁rougi	-12.9072
identité	-12.9073
énerve	-12.9074
estimé	-12.9088
▁souviendr	-12.9088
▁pile	-12.9094
informer	-12.9172
▁#191631	-12.924
étrange	-12.925
▁#185519	-12.9262
▁#183963	-12.9305
▁apparent	-12.9345
bande	-12.9351
écrive	-12.9366
▁écouta	-12.939
▁éprouv	-12.9444
rouillé	-12.9528
▁attentive	-12.9544
▁attract	-12.9546
▁dissimul	-12.9546
enveloppe	-12.9546
horizon	-12.9546
intelligence	-12.9546
obscurité	-12.9546
videmment	-12.9546
▁#14017	-12.9546
▁#184551	-12.9546
▁#23297	-12.9546
▁#26410	-12.9546
▁#26417	-12.9546
▁#34927	-12.9546
▁Actually	-12.9546
▁Surveille	-12.9546
▁aggressive	-12.9546
▁attentif	-12.9546
▁celebrate	-12.9546
▁champagne	-12.9546
▁cherchait	-12.9546
▁communication	-12.9546
▁condamné	-12.9546
▁convenient	-12.9546
▁dedicated	-12.9546
▁discount	-12.9546
▁economic	-12.9546
▁engagement	-12.9546
▁enlevé	-12.9546
▁envelope	-12.9546
▁espèce	-12.9546
▁garbage	-12.9546
▁guarantee	-12.9546
▁indifférent	-12.9546
▁librairie	-12.9546
▁navigue	-12.9546
▁nettoya	-12.9546
▁pistolet	-12.9546
▁politicien	-12.9546
▁principe	-12.9546
▁pétrin	-12.9546
▁pétrole	-12.9546
▁receipt	-12.9546
▁rejected	-12.9546
▁released	-12.9546
▁rembourser	-12.9546
▁renommé	-12.9546
▁rugby	-12.9546
▁réflexion	-12.9546
▁spider	-12.9546
▁surveiller	-12.9546
▁téléviseur	-12.9546
▁unconscious	-12.9546
▁collier	-12.9546
▁massage	-12.9546
▁millionnaire	-12.9546
▁process	-12.9546
▁produira	-12.9546
▁century	-12.9546
▁journey	-12.9546
▁staff	-12.9546
▁political	-12.9546
clined	-12.9546
▁concept	-12.9546
▁servant	-12.9546
▁émis	-12.9546
▁millionaire	-12.9546
▁voilà	-12.9546
▁deviens	-12.9546
▁région	-12.9546
▁freak	-12.9547
▁poussa	-12.9547
▁discre	-12.9547
▁#10131	-12.9548
▁carbon	-12.9549
▁sauta	-12.9552
▁create	-12.957
dependent	-12.9581
▁explor	-12.9631
▁#363650	-12.9717
▁#209086	-12.9734
▁#359134	-12.9742
▁#168747	-12.9775
opinion	-12.9783
book	-12.9784
▁augmente	-12.9826
▁séjour	-12.9862
worthy	-12.9971
▁abandon	-12.9976
▁termine	-12.9987
envisage	-13.0022
aughter	-13.0041
whit	-13.0045
quérir	-13.0045
dawn	-13.0046
▁célébr	-13.0046
▁financière	-13.0046
▁publique	-13.0046
▁reflect	-13.0046
appuyer	-13.0046
appétit	-13.0046
cruzedu	-13.0046
espagnol	-13.0046
teignez	-13.0046
▁British	-13.0046
▁Eiffel	-13.0046
▁Finalement	-13.0046
▁Monsieur	-13.0046
▁Remplis	-13.0046
▁Street	-13.0046
▁Voyage	-13.0046
▁Washington	-13.0046
▁alimentaire	-13.0046
▁augmenté	-13.0046
▁boots	-13.0046
▁brièvement	-13.0046
▁carottes	-13.0046
▁cellphone	-13.0046
▁classmates	-13.0046
▁consequence	-13.0046
▁department	-13.0046
▁diamond	-13.0046
▁douloureux	-13.0046
î	-15.4743
û	-15.4744
ç	-15.4745
ê	-15.4746
è	-15.4747
#	-15.4748
(	-15.4748
